#version: 0.2
Ġ t
h e
Ġ a
Ġ s
n d
Ġ w
Ġt he
e d
Ġ b
Ġt o
Ġa nd
Ġ h
Ġ f
Ġ T
i n
Ġw a
r e
i t
o u
Ġ l
Ġ d
Ġ c
Ġ p
a y
Ġ m
e r
Ġwa s
o m
ĠT he
Ġ he
i s
Ġ n
a r
i m
o n
Ġs a
i d
l l
Ġh a
Ġ g
a t
Ġ S
in g
o t
e n
a n
l e
o r
e nd
i r
o f
a m
e t
Ġ H
Ġ it
Ġt h
i g
ĠThe y
Ġ in
i l
Ġp l
ĠH e
Ġ "
o w
v er
r i
u t
Ġb e
Ġ u
Ġsa id
Ġpl ay
it h
Ġd ay
Ġw ith
p p
O n
Ġ y
o o
k ed
Ġ r
e x
Ġhe r
c e
Ġ I
ĠS he
l d
ĠT im
Ġh is
Ġs t
k e
Ġb ig
n t
c k
Ġy ou
ver y
s t
v e
Ġ on
u n
Ġha pp
ri end
Ġf riend
a ll
il y
ex t
Ġ L
Ġthe y
of t
Ġw e
Ġha d
Ġn ot
Ġl i
Ġu p
he r
Ġwa nt
Ġ of
a d
it t
< |
| >
end oft
endoft ext
s e
Ġ B
Ġd o
Ġ e
Ġhapp y
en t
Ġ very
Ġ M
e s
Ġth at
Ġsa w
On e
' s
ou ld
Ġm om
Ġf or
Ġs h
itt le
Ġl ittle
Ġs he
c h
im e
Ġn am
. "
Ġt ime
Ġ k
ou nd
Ġs o
Ġthe re
Ġnam ed
Ġs m
Ġb o
Ġwe re
ĠL ily
Ġn e
Ġwant ed
Ġb ut
ou t
T he
Ġfriend s
v ed
! "
h t
ĠT om
ir d
e l
Ġb ird
a l
Ġa n
a ke
Ġto o
om e
ĠI t
u g
id e
Ġw ent
Ġw h
Ġhe l
On ce
Ġ is
Ġa ll
Ġhel p
u e
Ġl oo
Ġl o
t er
Ġ A
Ġup on
r y
o re
i nd
Ġf un
Ġto y
g et
i ll
am e
Ġa s
Ġa t
r a
Ġ j
Ġd id
get her
Ġ re
u r
Ġ o
Ġs e
Ġto gether
a ck
Ġc at
l y
Ġt re
oo d
t ed
i c
Ġdo g
Ġc ould
Ġc an
Ġthe ir
e c
ar d
ar k
Ġg ir
Ġplay ed
Ġh im
Ġb all
? "
Ġgir l
Ġr o
w ay
Ġg o
he d
m y
Ġa re
Ġ out
Ġl e
Ġf r
a in
Ġk n
he n
Ġthe m
u m
' t
a x
Ġsa d
u l
Ġbo y
Ġtre e
ot her
Ġha ve
Ġm an
Ġc l
Ġlo ved
Ġloo ked
ou g
Ġf ound
Ġs p
Ġst ar
ĠS ue
on e
h ing
Ġs c
Ġb ack
ow n
ĠM ax
a re
Ġli ke
f ul
s ide
Ġm e
Ġbe c
Ġp ark
ig ht
on g
Ġc ar
o p
el t
Ġ One
Ġli ked
Ġw ould
Ġm ake
r ound
Ġl a
Ġf a
Ġf elt
Y ou
Ġ W
e ll
Ġse e
ĠB ut
om et
Ġas ked
a g
Ġne w
Ġn o
i ce
ĠS am
ou se
Ġstar ted
ar ed
Ġc ame
ĠB en
Ġa l
Ġ other
oug ht
il ed
Ġs omet
Ġa g
Ġg ood
Ġsm all
s s
Ġb r
Ġsm iled
Ġs ay
ri ed
ad e
ing s
o b
p ot
Ġw or
Ġf ind
i a
Ġa way
t y
Ġp ut
Ġ ex
Ġwh at
Ġsomet hing
Ġfr om
Ġm ade
Ġth ought
en ed
Ġh ome
Ġplay ing
Ġc o
oo k
Ġe very
Ġwa l
Ġm u
u c
a ch
ar n
ĠS pot
Ġr an
i le
Ġ F
i e
Ġ J
a ve
Ġag ain
Ġs ome
Ġla ug
d d
Ġh ouse
Ġd own
Ġf l
k ing
Ġtoo k
Ġsc ared
Ġp r
n y
u re
Ġtoy s
Ġle arn
i f
Ġ You
Ġw ill
Ġbo x
i ck
re t
a b
e p
Ġm y
Ġa round
Ġth ings
Ġyou r
ou d
Ġb l
u ck
Ġw hen
is h
Ġli ved
Ġf e
Ġthe n
Ġs un
a s
Ġs w
, "
Ġc h
u s
pp ed
Ġa b
ĠM ia
an k
Ġg et
uc y
T im
um p
T h
Ġl ot
is t
ot h
Ġt ried
a p
Ġkn ow
Ġsay s
Ġg ot
it ed
Ġwh o
Ġkn e
u st
Ġman y
nd er
Ġin t
Ġab out
L ily
Ġp ret
Ġd ec
Ġan y
Ġr ed
Ġ D
i ve
Ġkne w
a ce
ou s
Ġm ore
is e
Ġ v
Ġc are
all y
Ġp ic
a u
q u
Ġh ug
ĠL ucy
Ġlearn ed
Ġp o
Ġwa ter
f ter
Ġbec ame
Ġbe st
au se
Ġo p
Ġg re
Ġex c
way s
ur p
â Ģ
Ġout side
Ġlaug hed
Ġloo k
Ġal ways
Ġdec id
Ġsh ow
Ġu n
an t
ĠB ob
f e
Ġro om
Ġdecid ed
Ġh o
Ġbec ause
Ġint o
ĠS o
Ġe at
it e
Ġj ump
ĠA nd
Ġp e
Ġb oth
er s
ĠM om
Ġd ad
The y
u dd
Ġ ke
Ġon e
n n
Ġth is
Ġexc ited
Ġfa st
Ġ E
Ġn ice
Ġfe el
T om
Y es
Ġr un
Ġl ong
Ġto ld
Ġs k
Ġa m
urp r
ou r
Ġin side
u ll
Ġt r
Ġs urpr
Ġm o
in k
Ġpret ty
in y
Ġs or
W h
Ġt ake
o g
Ġs l
Ġe ach
Ġg ave
Ġmu ch
le w
Ġg ra
nn a
Ġro ck
Ġh ow
Ġst r
ar a
im al
Ġan imal
g ed
Ġne ed
Ġth an
B ut
v en
et ter
Ġto w
Ġ or
Ġ C
Ġu nder
es s
Ġo ld
Ġsor ry
g e
is ed
r o
ur t
Ġc le
Ġf ish
Ġwal ked
Ġcl o
a nd
Ġbe ar
a se
a st
Ġha nd
ur n
ĠW e
Ġk ind
ĠH is
he re
Ġhapp ened
Ġj ust
Ġfl ow
Ġf ood
Ġl ist
Ġt e
Ġdid n
Ġanimal s
Ġh ig
p l
Ġwa t
Ġne ar
Ġ ide
Ġt ry
c hed
Ġsk y
in e
Ġs n
v ing
Ġf i
r om
Ġu s
Ġide a
Ġb etter
ĠA my
Ġb ug
Ġhe ard
g ry
Ġit s
Ġt w
Ġl et
p ec
at e
ab le
f f
Ġ en
Ġcare ful
Ġsh are
Ġ if
Th ank
M om
Ġf ly
Ġst or
i al
Ġf lew
m ore
Ġany more
ĠT h
Ġsp ec
Ġspec ial
i on
Ġc om
Ġlot s
Ġne ver
Ġb y
l f
re am
Ġd an
Ġb u
Ġf o
Ġw ind
Ġd on
Ġt al
Ġcle an
or t
Ġg r
Ġlo ve
r m
b er
Ġ end
ĠThe n
op le
Ġe ven
Ċ Ċ
Ġm ag
Ġh ard
Ġsh iny
udd en
Ġf ore
Ġo ver
Ġc ake
a k
Ġb ook
Ġco l
Ġt urn
Ġf am
Ġb ad
Ġsa fe
Ġa fter
ad y
ĠA nna
udden ly
Ġpe ople
Ġpr oud
ĠE very
Ġsurpr ised
pec ted
L et
Ġhig h
Ġc u
Ġh urt
Ġc ome
im b
Ġdo or
ard en
Ġg arden
Ġg round
b b
Ġop ened
Ġpic ked
Ġl oud
Ġcl imb
ex pected
Ġun expected
Ġg l
Ġc he
il d
Ġ im
A s
Ġg ive
Ġwa y
a il
' m
Ġthan ked
Ġcol or
Ġbl ue
Ġst ill
Ġe ver
Ġhug ged
ĠF rom
Ġc all
Ġf ar
i p
ĠH er
ĠS ara
ĠW hen
N o
Ġof f
Ġmag ic
i z
oug h
ag e
um my
Ġ K
Ġjump ed
Ġsh ould
Ġp ar
Ġfam ily
oo l
Ġk id
Ġsm ile
he s
u ff
Ġpl ace
k ay
Ġwal k
Ġn ow
c t
ĠI n
Ġgre at
Ġ qu
Ġstr ong
le s
Ġst ay
Ġu nt
Ġst o
a ut
Ġfore st
t ure
an e
e m
Ġb ra
Ġ P
itt y
Ġfr og
Ġbr o
Ġunt il
o on
Ġbe aut
d y
Ġs qu
Ġst ick
Ġbo at
Ġn ext
le ase
n ing
Ġhapp ily
Ġlist en
a king
Ġkid s
Ġt ra
i es
i ful
Ġbeaut iful
Ġa pp
t h
Ġhelp ed
Ġd ra
Ġshow ed
Ġclo s
b e
Ġim p
un ny
Ġstor y
o y
Ġwh ile
Ġtow n
re l
p t
Ġr ain
re ss
Ġpic ture
Ġbe ing
Ġre m
Ġevery one
I t
ar y
Ġm or
re e
Ġha t
Ġcall ed
Ġm et
Ġsto pped
Ġa d
Ġg ame
N ow
H e
Ġw o
C an
g er
Ġan gry
uff y
Ġs oft
Ġop en
Ġtr uck
Ġke ep
W hen
Ġy ummy
Ġc ry
Ġlo st
Ġb ed
ĠL et
ĠS ally
Ġwa rm
b y
v ent
Ġbra ve
Ġm ouse
ĠW h
Ġat e
ĠK itty
is hed
Ġd e
f ore
Ġdo ll
Ġcould n
Ġwat ch
s o
Ġle ave
dd ed
Ġal so
Ġf ell
Ġgre en
Ġfa ce
Ġtw o
g an
is s
Ġflow ers
b it
Wh at
Ġ R
b le
Ġno ise
ab bit
ir st
ow l
Ġw here
a z
o ck
Ġso on
se lf
Ġsl ide
l uffy
Ġr abbit
Ġho le
Ġbe fore
Ġp us
ir rel
ir ed
ill y
Ġsa t
Ġhe ar
Ġu se
âĢ Ŀ
H i
Ġp a
Ġke pt
âĢ ľ
Th at
Ġsqu irrel
e ar
The n
Ġno dded
m a
Ġc ook
Ġex pl
Ġst ore
Ġhand s
L ook
Ġbird s
Ġp ain
Ġgo ing
Ġfun ny
Ġha ving
d ay
Ġs ing
ay be
u ch
Ġe y
Ġcat ch
a ug
aug ht
ĠF luffy
ĠC an
Ġy ell
u it
Ġth ink
le ep
Ġc ra
Ġf in
B en
Ġfi x
Ġb re
Ġt ired
Ġb unny
Ġus ed
Ġloo king
an ge
Ġb us
a ir
Ġwor k
Ġw r
Ġ our
t ing
Ġp ull
W e
Ġth r
Ġ Now
t hing
Ġwa it
Ġk it
Ġs ound
Ġj o
Ġha s
Ġme an
Ġ G
Ġpo nd
em ber
Ġbe h
Ġd r
Ġsun ny
l ed
Ġother s
Ġas k
n g
c hen
Ġkit chen
Ġtal k
Ġfl o
Ġd if
ĠJ o
re w
Ġp ie
Ġhe ad
Ġre al
Ġt ri
Ġf irst
Ġmom my
Ġey es
ell o
Ġfa v
H ello
Ġimp ort
at h
j oy
Ġ z
Ġrem ember
Ġr ight
Ġflow er
Ġc on
Ġm ess
Ġpar ty
Ġco ld
ĠD o
Ġsw e
Ġv o
i ous
f t
Ġsa nd
Ġ âĢľ
a c
or n
Ġr ace
Ġcu ri
im es
Ġimport ant
Ġd uck
Ġmor al
Ġsh ared
z y
ou nt
ĠJ ack
Ġ ice
Ġo kay
Ġad vent
Ġwor ked
ll ow
A t
Ġen joy
Ġm aking
Ġbr ight
Ġd ress
Ġcuri ous
Ġ own
Ġt all
Ġd ir
Ġh op
re ed
Ġh id
Ġfav or
h n
Ġ ri
Ġs leep
Ġfavor ite
Ġd is
W ow
Ġbe gan
Ġth ing
Ġm on
Ġb ag
Ġh ill
D on
Ġcl a
Ġdra w
Ġre st
Ġhe re
Ġy ard
Ġt ell
ĠF in
st er
Ġwat ched
Ġfo llow
q ue
Ġmo ve
Ġbe l
ec t
Ġc ut
Ġn ight
Ġag reed
Ġp ick
c o
Ġbl ock
Ġh un
ap er
ll y
Ġst op
Ġbeh ind
ĠTh is
i ed
Ġsurpr ise
Ġsh o
Ġh ot
A fter
Ġt able
Ġgra ss
Ġwor ry
Ġd ark
Ġtre es
Ġvo ice
Ġwal king
fe re
Ġflo or
Ġto p
Ġfar m
Ġli on
Ġdif fere
Ġp lease
Ġr u
Ġs ong
Ġt ail
Ġbut ter
Ġswe et
M ax
Ġsh out
Ġcolor s
Ġre ad
Ġl ady
ĠD ad
Ġfor g
is y
Ġleave s
Ġclos er
ig n
Ġcar s
Ġturn ed
Ġneed ed
Ġt ast
ar ing
Wh y
Ġw ood
Ġc ried
Ġdiffere nt
Ġd el
Ġlaug h
Ġpie ce
âĢ Ļ
er ed
ĠM r
Ġadvent ure
Ġro ll
Ġdo es
Ġfi re
Ġhun gry
i ke
Ġc r
Ġha ir
ĠS uddenly
Ġyell ow
Ġp aper
Ġfeel ing
Ġf ull
Ġpr in
b o
S ue
Ġto uch
ĠA s
A nna
S am
Ġw et
Ġfriend ly
Ġp er
o om
k en
c ked
a ched
Ġsw ing
Ġfr uit
i ent
Ġbro ken
Ġre ady
by e
Ġpr om
pp y
ĠTh at
Ġan other
Ġpret end
Ġl ight
Ġdan ce
at er
Ġclimb ed
w here
Ġlist ened
Ġdan c
ĠBob o
Ġrun ning
Ġon ly
Ġpl an
Ġg one
Ġsw im
bb ed
S uddenly
s h
Ġtra in
il a
ĠJ ane
S ara
nd ma
a v
Ġclo se
Ġsm ell
S he
ab y
Ġam az
S o
Ġho ld
Ġblock s
ĠTim my
Ġwo nder
Ġre pl
ĠA ll
Ġre ached
Ġse es
Ġbutter f
Ġwa ll
one y
Ġp u
r ed
Ġhelp ing
Ġsl ow
Ġd ri
Ġc ream
Ġc ool
a f
Ġgl ad
Ġa nt
Ġl ess
Ġbe en
Ġgood bye
Ġa c
Ġf ight
at her
Ġpus hed
M ia
ic ed
Ġfa ir
Ġmu st
Ġh ide
Ġmom ent
Ġ O
Ġwind ow
Ġs it
Ġball oon
Ġexpl ore
Ġch ild
Ġsn ow
ĠEvery one
Ġa r
Ġw ished
Ġst e
Ġd one
Ġb aby
Ġwa g
Ġst uck
Ġbu y
Ġper f
Ġth ank
Ġm ight
ic y
Ġnam e
Ġtry ing
iz ed
Ġb it
Ġcom ing
Ġb ar
Ġapp le
Ġqu ick
Ġf all
as h
Ġsc ary
Ġlook s
Ġbu ild
Ġdo ing
Ġd in
Ġd ream
Ġw in
Ġunder st
a isy
Ġdir ty
Ġhe ld
am es
Ġbook s
Ġm ar
I n
Ġle ft
Ġbutterf ly
Ġshout ed
Ġc ount
Ġrepl ied
av y
Ġre ach
Ġt iny
Ġthr ough
ot t
Ġd ro
Ġwh y
Ġa ir
Ġbr an
Ġla nd
ke y
Ġth ree
Ġpull ed
Ġsp l
Ġtre at
Ġgr ow
Ġw ise
Ġbr other
Ġwood s
Ġs ure
' re
Ġch air
i x
Ġm at
Ġse en
in s
Ġp ink
Ġ owl
Ġcla pped
Ġpl ant
el y
ie ld
Ġcu p
Ġsomet imes
and y
Ġf ill
Ġcl oud
as k
Ġsw am
out h
Ġj ob
Ġcolor ful
Ġremember ed
Ġne st
Ġbig ger
p e
Ġm outh
O kay
Ġjo in
Ġless on
p h
Ġc re
ou p
ĠThe re
ro om
ar t
Ġwa ved
Ġgra bbed
udd y
Ġstay ed
O h
Ġpain t
Th is
Ġcl ot
Ġcon t
Ġclot hes
ow er
ĠA fter
Ġwa ited
Ġquick ly
c le
Ġwor d
Ġbro ke
uck y
Ġg ames
Ġc ast
Ġb lew
Ġg ent
ĠMom my
Ġenjoy ed
Ġnot iced
at ion
ri es
J o
Ġs et
Ġlike s
Ġpicture s
t on
d e
Ġse a
Ġhe avy
Ġg if
Ġal one
Ġmu s
as ure
Ġany thing
Ġsp ot
Ġm iss
Ġho pped
Ġturn s
Ġwor ld
or m
Ġy ear
d er
Ġb ott
Ġp en
Ġp ot
Ġp at
l c
H er
Ġm ix
Ġa rm
Ġb ike
Ġt ight
Ġevery where
L ucy
Ġw on
Ġtow er
Ġth rew
Ġhim self
Ġfollow ed
ĠB uddy
Ġr ide
m an
Ġj e
Ġj u
le ss
am p
B ob
ap e
Ġcom p
Ġke y
r ow
" .
Ġwh ite
Ġwr ong
ct or
ĠD aisy
Ġmake s
ĠWh at
Ġbre ak
are nt
Ġbl ack
S pot
n er
D o
Ġde ep
th y
Ġmus ic
e e
Ġpo l
Ġdel ic
u ed
ce ss
Ġbe e
Ġforg ot
Ġcast le
Ġp arent
o lly
ve s
Ġe m
i et
Ġwe ar
Ġh it
is ter
Ġ ve
ou n
Ġqu iet
Ġr ound
an ce
Ġst u
Ġdanc ed
ull y
Ġv is
Ġwant s
Ġle af
Ġn ap
Ġmon ster
ĠJo hn
Ġunderst and
an g
o s
Ġb owl
r ot
Ġtal ked
re n
Ġb or
itt en
Ġd ry
Ġfast er
Ġcook ies
Ġbr ought
f ully
Ġle g
ro ss
Ġm um
t s
Ġs ide
Ġs ign
F rom
ĠIn side
Ġsm art
z z
c y
Ġrock s
Ġsome one
H is
Ġpo in
Ġsh aring
Ġwe ll
Ġse c
Ġfo x
Ġbut ton
Ġre l
Ġre s
Ġhapp en
ĠL ila
Ġbran ch
Ġfin ished
Ġre ally
en ce
ard s
Ġdin ner
Ġs ister
ed dy
Ġfly ing
Ġcont in
Ġwor ried
Ġe le
ĠT o
Ġbe ach
Ġvis it
ĠM aybe
Ġ que
Ġsec ret
Ġe l
Ġk ing
ĠSara h
Jo hn
g y
Ġto day
Ġperf ect
Ġri ver
Ġsh in
Ġevery thing
Ġs illy
Ġdan ger
i pp
ĠJo e
Ġchild ren
Ġg u
Ġf ield
ĠSo on
Ġf ur
Ġfill ed
Ġel se
Ġsmile s
Ġwe lc
ĠA t
Ġw ish
ĠE m
Wh ile
Ġsa ng
Ġg i
Ġsn ack
z e
Ġp udd
Ġeat ing
Ġpiece s
Ġreal ized
Ġprom ised
Ġsp r
or d
Ġp ig
Ġf ree
Ġcontin ued
Ġb ite
e ad
Ġparent s
Ġcare fully
itt ing
at ed
Ġe ar
J ust
Ġj ar
Ġc ow
M aybe
Ġdra g
A my
st ead
Ġbl ank
Ġor ange
Ġmu d
Ġcry ing
Ġen ough
Ġblank et
ck et
Ġroll ed
Ġs oup
Ġsa il
Ġp urp
im i
Ġy es
a le
Ġdr ink
Ġsn ake
se s
Ġb oun
Ġp et
Ġfair y
Ġthr ow
Ġlaug hing
Ġcra b
Ġword s
Ġamaz ing
Ġb ath
i ch
Ġpurp le
Ġ Z
Ġwith out
Ġbott le
i re
Ġgif t
ĠB illy
F in
Ġgra ndma
us ed
on s
Ġp ast
Ġm oney
i ver
f ort
Ġm ail
Ġbar ked
Ġat t
Ġwag ged
Ġmon key
ĠG ra
ch ool
Ġbr own
Ġmo ved
un ch
Ġdo ctor
is es
Ġask s
Ġget ting
Ġclos ed
Ġw he
Ġwelc ome
Ġs u
Ġc andy
g g
Ġs chool
Ġmor ning
Ġown er
Ġl on
Ġm other
Ġhig her
Ġs itting
. âĢĿ
Ġsm o
Ġtre asure
! âĢĿ
Ġdanger ous
Ġlon ely
ĠC h
Ġli ving
Ġapp les
us h
Ġsh op
ve l
Ġstr ange
as ed
Ġshin ing
Ġro ad
e re
ĠTom my
Ġpa w
Ġcre at
e y
un a
Ġr a
Ġsho es
Ġp re
Ġ -
i ble
Ġst re
Ġtal king
al thy
Ġc aught
Ġe gg
Ġpa ss
m e
o l
Ġl ake
Ġb uck
Ġrun s
Ġl etter
Ġw ings
Ġche e
f ish
Ġf an
Ġm ad
ask et
Ġb asket
a ss
Ġdrag on
a pp
Mom my
s et
ck s
Ġst one
Ġst and
Ġthink s
Ġdelic ious
Ġto m
Ġpudd le
Ġno se
ĠM imi
Ġbel ie
ĠB l
Ġfarm er
bo ard
Ġsa me
Ġyear s
Ġt eddy
Ġb at
is k
Ġm ine
it ch
Ġse ar
c hes
Ġco at
ig h
Ġday s
Ġbr ing
Ġgent le
Ġf it
Ġstar t
Ġwh ist
Ġfin ally
Ġcr ay
Ġk ite
ig g
Ġsc ream
ph ant
Ġp ill
ar m
Ġsing ing
Ġv ill
Ġch o
ell a
Ġtast y
s w
in ed
Ġp h
Ġb en
Ġtr ou
Ġshe ll
Ġher self
Ġhop ed
Ġw ore
Ġsw ings
Ġan sw
s y
Ġh or
P lease
Ġpus h
Ġbel ong
Ġbus h
isk ers
Ġcar rot
Ġar ri
aught y
Ġte ach
b ow
ra ct
Ġn aughty
Ġele phant
Ġdro pped
Ġsh ap
Ġte ac
i er
Ġco ll
s c
Ġwo ke
e my
Ġp ile
b all
Ġhid ing
Ġc our
Ġm in
Ġto uc
er ry
is a
ll ie
' ll
Ġpu ppy
Ġsee m
am a
Ġl unch
Ġtw ins
Ġsa ck
Ġb ow
Ġp ers
Ġcour se
ĠJ en
Ġche ered
Ġshap es
Ġgre w
Ġro pe
f used
ir th
Ġvill age
irth day
Ġju ice
i pped
Ġrain bow
Ġsp in
O K
Ġsh ook
J ack
Ġsp oon
Ġben ch
Ġstre et
Ġf ence
Ġcut e
ĠF red
Ġro b
Ġn ut
Ġchee se
Ġpr ob
Ġtouc hed
id ge
Ġj oy
co l
ĠWh iskers
Ġse ed
Ġwa r
Ġteac her
Ġarri ved
Ġc orn
Ġfore ver
Ġab le
G ood
Ġbe ll
Ġfe w
Ġcar ry
Ġpl ane
Ġmo st
ĠBl ue
Ġe as
ll a
le m
Ġsound s
Ġd es
Ġsp o
Ġb irthday
Ġprob lem
b r
Ġp ower
Ġin c
um b
Ċ Ġ
il k
Ġbug s
Ġwonder ful
Ġdoll s
Ġbus y
at o
Ġprom ise
ir p
Ġw ra
ĠTh ank
Ġfeel s
et er
e b
i an
ĠEm ma
Ġbre ad
Fin ally
Ġm ilk
Ġne ck
Ġrob ot
Ġre c
Ġsh y
Ġk iss
ount ain
ir t
Ġhear t
Ġb and
Ġc ave
Ġpo cket
u b
g ly
Ġhelp ful
Ġbelie ve
Ġslow ly
Ġsh ake
ump y
e ared
Ġpat ient
Ġp op
Ġo b
ar p
Ġli ve
Ġstor m
Ġu gly
Ġhold ing
Ġtow ards
Ġup set
Ġsh r
Ġt urt
ad ow
Ġco ver
Ġk itten
Ġsh arp
o st
Ġstor ies
Ġdis app
ĠR emy
Ġs uc
Ġh oney
ĠB ella
ĠL e
o ve
Ġball s
re ad
Ġno ises
Ġc ir
Ġsp ark
Ġgr ay
Ġd ist
Ġdir t
Ġl ate
og gy
Ġdri ver
Ġse at
Ġbuck et
Ġme et
Ġyou ng
Ġamaz ed
Ġturt le
al m
Ġtreat s
Ġsp id
Ġmagic al
at or
u nt
Ġgl ow
Ġz oom
Ġle m
Ġsee k
um ber
fort able
Ġsand w
Ġtri p
Ġm ist
our n
Ġspl as
Ġm ark
Ġj ourn
Ġfo ld
Ġm ach
Ġpu zz
l ing
Ġpar t
Ġw ild
Ġhor se
Ġprin cess
Ġor gan
pp ing
Ġcook ie
oo se
en s
S ure
Ġhug s
ĠM ark
un g
Ġt aking
Ġwhe el
ep end
Ġcl oth
Ġs ug
ĠL isa
Ġstr ing
Ġbu bb
Ġin stead
Ġn et
Ġdro ve
Ġru de
il ing
Ġhug e
Ġco in
Ġstar s
Ġfight ing
B e
ĠJ im
Ġsp icy
Ġl ucky
O f
Ġb one
Ġcra w
He y
or s
Ġin v
ĠGra ndma
n ot
Ġc a
pp er
u p
Ġfor get
Ġsa l
Ġd i
a ur
Ġc ard
ĠFin ally
Ġwhist le
Ġcan not
Ġp ath
Ġs ick
Ġc ou
Ġw ide
L ila
Ġspid er
Ġsong s
Ġfo ot
Ġsnow man
Ġli fe
Ġpill ow
iz e
ĠJ ust
ul ar
L ater
e st
Ġfix ed
ĠA nn
er t
Ġgi ant
op h
ri ll
Ġbo ss
Ġno d
Ġcom es
Ġla st
Ġjo ke
Ġmo on
Ġgr umpy
Ġtast e
d en
Ġwa ve
Ġmach ine
Ġcar t
Ġth in
Ġdri ve
Ġas h
Ġs er
Ġgra b
Ġpe ace
ĠLe o
Ġ On
l ower
er y
Ġdad dy
Ġs el
Ġshe lf
ere st
Ġs uddenly
Ġland ed
Ġwas n
Ġhid den
Ġwr ite
Ġcon fused
Ġwor m
Ġch ange
Ġr ing
Ġs our
oo p
Ġint erest
Ġch ased
Ġfruit s
it y
Ġmy ster
Ġr ad
Ġb ark
Ġsmo oth
ĠC ome
Ġadventure s
Ġv al
Ġf le
Ġste pped
Ġo ven
op e
Ġmiss ed
Ġtake s
k in
Ġsel fish
Ġshe ep
Ġmess y
Ġac ross
T o
ell y
Ġc e
Ġex p
Ġ N
Ġ ent
t o
if e
Ġl ater
Ġstick s
S t
Ġst ep
Ġt ie
Ġb ought
e ver
ĠL una
Ġte a
Ġd rew
Ġb an
pec t
irp y
bo x
? âĢĿ
Ġl ay
Ġwas h
Ġbe ak
Ġp our
o se
Ġj og
Ġgr ate
Ġduck s
Ġsp e
Ġleg s
ug g
Ġf il
ĠB u
Ġem p
Ġhop e
Ġsl id
Ġemp ty
m er
Ġfe ather
am ed
Ġsleep y
Ġz oo
Ġdr um
Ġgrate ful
Ġp an
Ġph one
et h
ar s
Ġf ing
ion s
Ġlem on
le t
Ġsmell y
ĠC at
ĠM olly
Ġcle ver
Ġspl ash
Ġim ag
Ġinterest ing
Ġsa ve
Ġch ick
Ġm ed
Ġc alm
ĠJ ill
Ġwatch ing
S oon
iz zy
iz z
Ġ ign
Ġban an
Ġpl ate
Ġl ine
Ġcloud s
y ard
Ġface s
Ġa ct
Ġb a
w el
Ġwo lf
Ġth ough
Ġdog s
Ġseem ed
Ġback yard
Ġspr ay
C ome
Ġpr ot
Ġwho le
Ġfan cy
Ġm ot
ĠDad dy
er ly
Ġrock et
Ġque st
Ġarm s
Ġhe althy
w ard
Ġsu pp
Ġpuzz le
Ġfin ish
Ġal ong
ll o
Ġexpl ain
d ge
Ġje wel
Ġeas y
on t
Ġp ract
Ġj elly
Ġt id
ĠCh irpy
Ġf ake
Ġcray ons
Ġwonder ed
Ġm aybe
one st
Ġsh ip
Ġsc ar
ig er
Ġnot hing
Ġlong er
Ġem b
Ġp ool
Ġany one
u ally
Ġwor king
ĠB e
Ġfr ont
ĠJ erry
Ġgive s
ir r
Ġs uch
Ġp ack
ĠB unny
o cked
Ġboss y
m ent
Ġsa ved
Ġtrou ble
ĠD oggy
Ġsmell ed
Ġp in
Ġh onest
it ing
Ġne igh
ra ss
ar rass
Ġa v
ar ge
Ġli ft
Ġforg ive
Ġemb arrass
Ġv an
Ġtid y
Ġwe ak
ur se
Ġput s
un k
Ġsh irt
ĠO llie
Ġk ick
Ġm ind
ĠW ith
ĠMom o
Ġplant s
Ġneigh b
Ġso l
Ġco zy
Ġgent ly
m ing
or row
Ġexpl or
Ġmist ake
s p
o c
oom y
Ġl ad
Ġy og
or k
Ġpoin ted
Ġon to
Ġa f
Ġc ross
Ġwait ing
Ġjump ing
Ġst ood
Ġlo ck
Ġprin ce
Ġche er
Ġque en
ĠWh y
ĠM ary
Ġw ing
w e
on es
Ġlove ly
Ġl arge
ul t
Ġche w
Ġre t
Ġs ur
A nd
Ġst ret
Ġcou ch
Ġb al
aught er
Ġde er
ĠThe ir
er a
Ġlad der
ĠM y
Ġplace s
Ġret urn
Ġd ish
ra id
Ġant s
Ġclean ed
Ġaf raid
Ġtom orrow
Ġbuild ing
Ġpers on
S ally
e k
Ġsandw ich
n ed
Ġpretend ed
Ġboun ce
Ġw ip
ge st
Ġmat ch
Ġri ch
Ġg ather
Ġsear ch
Ġp izz
u ce
om an
Ġbor ing
Ġh um
K itty
ĠS omet
ac ed
M y
Ġte eth
Ġd aughter
Ġw oman
Ġscar f
Ġgo es
ĠTo gether
Ġst ra
Ġla w
Ġswim ming
Ġfur ry
Ġsplas hed
Ġp ri
Ġscream ed
Ġlove s
Ġtr ue
Ġla zy
Ġg en
Ġe ag
Ġn umber
Ġansw er
Ġash amed
Ġpizz a
a w
Ġapp eared
Ġnear by
Ġfe ar
Ġpower ful
ĠS t
Ġfl ag
v ous
Ġha ng
Ġcl own
Ġch ase
Ġwa nd
ĠT V
Ġru b
Ġmot or
Ġsuc cess
Ġcho col
ĠI f
Ġtr ust
Ġcreat ive
Ġwe aring
Ġmat ter
Ġno isy
p a
Ġd ig
Ġhe llo
Ġn er
Ġsa f
Ġtoo l
ĠB ird
Ġner vous
el p
ad o
Ġte st
Ġsm iling
o ppy
Ġso ld
ic ked
os aur
Ġcir cle
m b
Ġdr ank
Ġcla ss
Ġtri es
Ġm ap
Ġchocol ate
ĠP lease
Ġimp ress
Ġdin osaur
Ġgen er
Ġpol ite
Ġkne e
Ġm irr
ĠBob by
ĠT iny
Ġgo ld
Ġprot ect
Ġr are
Ġc and
St op
ĠG o
Ġcar ried
Ġballoon s
ens ive
Ġa p
Ġmirr or
Ġsh adow
Ġg un
ĠD on
Ġexp ensive
in a
Ġba ld
Ġre g
ĠS p
if f
Ġmyster ious
Ġnot e
Ġp ump
Ġher o
Ġmar ch
Ġ icy
Ġh ar
Ġwe ird
Ġres pect
ar l
Ġg ate
Ġc ri
Ġsn ee
Ġso ap
iss ors
ut e
ra g
Ġtow el
Ġthe se
Ġpo or
Ġwh ale
Ġt ape
Ġfe et
Ġd izzy
itt er
nd pa
ĠBen ny
Ġgener ous
H elp
Ġpre s
Ġdis co
n ic
vent ually
Ġle ad
Ġm ic
Ġs que
Ġpic nic
Ġjourn ey
Ġbo ot
Ġsug ar
Ġembarrass ed
is p
Ġt ent
Ġpeace ful
sc ape
Ġsc issors
Ġf at
ĠB ear
Ġyell ed
Ġbr ush
Ġm el
Tom my
Ġtast ed
Ġgl ue
Ġt ick
Ġdanc ing
n ess
Ġh ur
Ġbr idge
Ġr ough
Ġcl ap
ot e
Ġdec or
Ġclos et
Ġst ir
Ġcr own
Ġprin t
u al
Ġc ap
im p
ow ed
air s
ĠSomet imes
ĠH ow
um e
Ġl amp
le br
Ġe ld
Ġsc are
Ġv ase
Ġrel ie
an y
l ves
Ġce lebr
Ġte le
Ġg igg
Ġwh isp
ĠD ucky
Ġbl ow
Ġlo g
Ġpain ted
Ġp ay
Ġsc o
Ġw is
Ġc age
Ġmix ed
er ries
Ġb ake
Ġwould n
Ġsp read
Ġb erries
r ob
get able
Ġm ountain
Ġn orm
Ġad m
Ġbec ome
Ġfam ous
Ġdraw ing
Ġkn ocked
Ġbe an
as p
Ġve getable
Ġk icked
ust r
Ġsh ark
Ġnorm al
Ġinc red
Ġwra p
s er
c ed
Ġlo se
Ġgr oup
Ġte am
Ġgl ass
Ġ 3
Ġeld erly
Ġth ick
Ġign or
Ġf ine
Ġclo ck
Ġcle ar
Ġcorn er
Ġfr ustr
Ġmight y
Ġincred ible
rob e
ĠB r
Ġc one
ig hed
D ad
Ġmom s
Ġso ck
Ġbal ance
Ġsp ace
Ġfr ight
Ġj am
rag ile
Ġbran ches
ĠM ama
Ġsw ord
Ġro ar
Ġorgan ized
p ort
Ġf ool
al ous
Ġfe ed
Ġse ll
Ġgu ess
ĠS ome
Ġwh ich
Ġh orn
Ġpres ent
Ġje alous
Ġb urn
Ġy arn
on y
Ġunderst ood
Ġf ragile
Ġm is
Ġt er
Ġstu bb
Ġfrustr ated
W here
r ay
c ient
Ġho se
Ġsho e
Ġsp ent
Ġt aught
Ġstubb orn
Ġtw ist
Ġche st
Ġrelie ved
Ġspo iled
Ġan cient
i que
Ġpr ay
Ġcreat ure
Ġwa ke
Ġfi er
Ġegg s
Ġfier ce
Ġgo at
Ġter ri
Ġb arn
y m
Ġfright ened
Ġun ique
Ġc ab
Ġpump kin
Ġor d
Ġme asure
or ry
Ġcom fortable
Ġto ug
Ġwag on
Ġun us
Ġbre ath
Ġuse ful
Ġfool ish
Ġstra w
Ġcl ay
Ġexplor ing
Ġtom ato
Ġd ug
d le
Ġunus ual
Ġdisco ver
ĠP e
Ġde ad
Ġfind ing
Ġpol ice
Ġwr ote
Ġcl um
Ġex am
l ace
Ġwa ves
Ġsqu are
Ġhear s
Ġd ull
Ġtell s
Ġneck lace
Ġclum sy
Ġcab in
Ġtoug h
k n
Ġbubb les
To gether
Ġsear ched
Ġno sy
Ġwas hed
Ġbath room
Ġpaw s
bb y
o nd
un n
an ged
kn own
Ġbo ard
f ic
Ġas king
Ġthank ful
Ġcra zy
Ġb itter
c il
Ġsun f
ber ry
y al
Ġdif fic
al k
Ġsw an
Ġ ind
Ġp ir
ĠE lla
Ġun known
Ġro se
Ġbl oom
Ġpen cil
Ġcover ed
Ġdiffic ult
Ġa dd
Ġfing er
Ġh oop
Ġha m
Ġw itch
Ġj et
Ġdr op
Ġ '
M e
Ġchick en
Ġgl oomy
a pped
Ġlo yal
c om
al s
He re
l ight
Ġwe althy
Ġun l
Ġcat s
Ġend ing
Ġc her
Ġg uit
b led
Ġjoin ed
sh ine
Ġdo ve
Ġterri ble
Ġmo v
ĠR ex
i ant
an ut
Ġyour s
Ġsal ad
ĠAnd y
Ġ U
Ġnut s
Ġli f
Ġr at
g round
Ġpot ato
Ġm ask
Ġt iger
x ible
se lves
er p
Ġmo ving
orm ous
Ġch anged
Ġexc iting
Ġval ue
ĠM any
Ġbo dy
ĠT r
Ġdis g
Ġrec ord
Ġto ast
Ġche ap
Ġguit ar
Ġen ormous
Ġz ip
irst y
Ġknow ing
Ġyour self
Ġadvent ur
Ġhair y
Ġsho ot
E very
ĠBr own
Ġbor ed
l and
Ġsmall er
Ġrem ind
Ġac orn
Ġpe pper
Ġadventur ous
Ġst uff
Ġsun shine
Ġhat s
or y
Ġkn ife
Ġsnack s
Ġfle xible
Ġperf orm
Ġco st
Ġsol ve
rill iant
ĠJim my
Ġsh ore
Ġnod s
Ġth irsty
Ġb rilliant
Ġdisg ust
Ġdelic ate
Ġfr own
Ġst ri
Ġcoll ect
Ġseed s
Ġas leep
Ġbanan a
re en
Ġcount ed
Ġmail box
in ess
Ġtri ck
ung le
Ġd ough
Ġhe al
Ġneighb or
Ġmark et
Wh o
l ive
id ent
Ġj ungle
Ġst age
Ġst at
Ġsque e
Ġexplain ed
Ġdisgust ing
Ġcu be
mb re
Ġu mbre
at es
Ġla b
J im
Ġjo lly
p id
in al
c orn
erp ill
Ġcat erpill
Ġfl ash
il t
Ġs uit
u nd
Ġfr idge
id dle
Ġr h
Ġsunf lower
ĠA l
Ġrel ax
Ġcr ane
ig inal
Ġh arm
Ġis land
Ġt imes
Ġsh iver
Ġstu pid
Ġf our
Ġmed ic
ĠIn stead
ĠWh ile
Ġg oose
y ing
Ġcom b
ic t
ed ient
Ġc ro
ĠW ill
Ġsto ve
I f
Ġspr ing
A re
Ġind epend
M um
m ost
Ġbat ter
Ġr ug
Ġg em
p es
Ġs ighed
Ġmedic ine
Ġvegetable s
Ġor iginal
Ġd epend
H ow
Ġst ones
Ġst amp
ĠYou r
Ġcare less
Ġsh ine
Ġje ep
Ġg ar
In side
Ġcarrot s
g u
Ġsc r
Ġc ries
Ġob edient
Ġpop corn
Ġstu dy
Ġsuccess ful
Ġal most
Ġm iddle
Ġsa uce
Ġindepend ent
Ġmag n
Ġme al
Ġcaterpill ar
Ġj ack
ĠSam my
Ġfear ful
S orry
m et
ink y
Ġpe bb
Ġe scape
Ġeag er
Ġpar rot
Ġser ious
ak en
Ġbed room
Ġhel met
Ġstat ue
Ġget s
Ġpe anut
Ġde st
Ġpast a
Ġ No
Ġra ven
Ġan g
Ġf ountain
Ġcomp et
The re
Ġumbre lla
Ġjack et
Ġbelong ed
Ġfil thy
Ġbor row
Ġc am
er able
Ġdes ign
Ġpri ze
Ġh ay
Ġhouse s
Ġstand ing
Ġbra ce
Ġr aced
Ġmis erable
ag es
Ġt aken
Ġcray on
i o
Ġpain ting
Ġtri ang
Ġf ig
Ġch oose
Ġimpress ive
Ġfor k
Ġt ied
Ġlif ted
Ġspot ted
ia ble
our s
Ġsl ipped
Ġthought ful
Ġt ank
Ġste al
Ġdepend able
en ny
Ġmu sh
Ġgar age
Ġbu ilt
Ġ er
Ġcraw led
Ġmo le
Ġsc ale
ip e
Ġp ant
Ġboat s
Ġbott om
l ph
Ġcheer ful
Ġpick s
Ġus ing
Ġp ian
Ġsmo ke
Ġham mer
Ġshow s
ber ries
Ġmo der
Ġre f
d ile
co dile
Ġen g
r n
Ġmagn et
Ġcra ck
in ary
Ġhurt s
Ġmel on
Ġpian o
Ġa unt
c ream
Ġdo lph
Ġwa ff
unn el
Ġmoder n
Ġt unnel
p ack
Ġar row
o in
Ġmush room
Tim my
Ġrel iable
Ġsqu ash
Ġho pping
Ġj ug
Ġg um
Ġmov ie
Ġs ink
The ir
Ġle an
Ġfl ute
i v
Ġpop ular
Ġbe et
Ġt ax
Ġs il
op ter
ic opter
Ġon es
Ġcompet it
Ġcry st
Ġneed s
as er
Ġli z
M olly
Ġcro codile
ip op
ll ipop
Ġtrou bled
Ġp ress
Ġhel icopter
Ġpig e
Ġplay ful
Ġtri cks
Ġlo cked
Ġhum ble
Ġlo llipop
com fortable
Ġkiss ed
a ppy
am ond
Ġun comfortable
Ġl ow
at ch
h ost
Ġwa nder
Ġr id
Ġtax i
Ġan x
Ġmu ff
c les
Ġang el
ed y
Ġgra ce
Ġpant s
at ter
Ġdi amond
Ġto rn
Ġtw ig
Ġwra pped
ot o
Ġhelp s
ĠS n
Ġanx ious
Ġcam era
Ġdisapp oin
Ġg host
Ġru ined
ĠJen ny
c ident
Ġte ars
a ff
Ġf is
ĠE ven
Ġen v
Ġbel t
il ty
Ġqu ar
op l
er opl
Ġgu ilty
Ġhapp iness
Ġboy s
Ġliz ard
Ġhelp less
Ġb ull
Ġa eropl
ce an
Ġpass ed
Ġwalk s
c ut
Ġc ere
Ġo cean
Ġme ant
Ġfl uffy
Ġde af
Ġstret ch
Ġbrace let
Ġw ire
t t
Ġn ail
Ġcand le
z ed
Ġca ct
Ġharm less
Ġc op
Ġm op
ump et
Ġord inary
Ġbe es
Ġansw ered
Ġrad io
Ġbeet le
Ġt ire
Ġquar rel
Ġcoll ar
Ġsh ape
Ġflash light
Ġtr umpet
Ġpour ed
Ġeng ine
Ġhard er
M ama
Ġcryst al
Ġpers ist
Ġh unt
Ġinv ited
Ġcere al
Ġsp ill
Ġt ag
Ġto oth
Ġoff ice
Ġch arm
Ġcomp ut
co a
Ġsco ot
Ġl it
Ġm elt
Ġre p
Ġtriang le
ie f
Ġac cident
Ġsp end
Ġm ug
he tt
Ġc omet
ag hett
aghett i
Ġsh ade
Ġyog urt
Ġcomp ass
u be
Ġc ush
Ġdisappoin ted
Ġli cked
Ġfig ure
Ġav oc
az e
Ġcact us
Ġreg ular
Ġgi ving
Ġpa le
Ġwhisp ered
ut h
Ġbar ber
Ġcre ate
ell ig
Ġshe et
Ġro of
J ane
it her
as ses
Ġint ellig
Ġpract iced
Ġlo ad
Ġli br
Ġro de
Ġhar sh
Ġdel ight
Ġgif ted
Ġp ow
Ġth read
Ġp ipe
Ġsp aghetti
Ġv i
ĠTr ue
ur key
az z
Ġsa iled
Ġd ust
c col
u bby
Ġb icy
Ġfor ward
Ġcompass ion
ccol i
Ġpr o
Ġen vel
Ġpersist ent
Ġspe ed
Ġco coa
Ġm itten
Ġc oo
h ip
Ġquest ions
Ġfeather s
Ġcomput er
g ing
Ġpige on
Ġdes k
Ġshr imp
Bob o
Ġgl ove
Ġst ream
Ġt urkey
Ġcharm ing
Ġenv ious
Ġri ce
Ġcar p
Ġin se
Ġstrong er
Ġear s
Ġkn ot
om es
lc an
Ġra ft
we et
Ġco ins
Ġt ap
Ġwhe at
Ġtra p
lcan o
Ġbox es
Ġtr unk
Ġch ubby
umb ers
Ġcarp et
Ġfriends hip
Ġaeropl ane
Ġrest less
Ġdream s
Ġsp un
Ġintellig ent
Ġha lf
ul if
Ġt ube
Ġcraw l
Ġdel iver
ol in
Ġwe ek
an ger
Ġac ce
Ġloo p
Ġon ion
Ġv ide
ĠJ ake
Ġbro ccoli
Ġb ri
Ġs le
Ġvo lcano
Ġca ulif
Ġv ine
y e
ess ie
Ġloud er
Ġtick et
Ġth ief
Ġtra ck
Ġpebb le
cy cle
Ġm ill
as ing
Ġsleep ing
Ġn umbers
Ġinse ct
Ġy aw
Ġhair cut
Ġal ert
it al
Ġdest ro
Ġe ventually
Ġatt ract
Ġexc ite
ul u
Ġho sp
ĠTo day
Ġreturn ed
Ġer aser
ĠEm ily
is ted
Ġhappen ing
Ġhosp ital
Ġplan et
Ġsc reen
Ġgrace ful
Ġdec ide
ac he
Ġun iver
Ġlearn ing
Ġle op
ĠO K
Ġnice ly
Ġcelebr ate
rew ork
Ġcaulif lower
Ġcompetit ive
Ġpo em
Ġpe ach
Ġsa us
Ġattract ive
Ġc urt
at ient
Ġsold ier
Ġdolph in
Ġb ase
Ġpar ade
Ġcurt ain
ul b
G o
Ġway s
Ġtra vel
Ġsc atter
Ġignor ant
at s
Ġvi olin
Ġro d
Ġwheel s
Ġy ach
Ġenvel ope
Ġd eter
Ġcompassion ate
Ġbar rel
Ġbubb le
Ġl ying
Ġsor t
z zy
Ġfi rework
Ġth u
Ġquest ion
Ġb ulb
Ġte m
Ġdeter m
Ġleop ard
Ġscoot er
ĠP ipp
Ġneed le
el ery
Ġju dge
Ġr ag
ĠF r
Ġbicy cle
Ġyach t
Ġcri cket
Ġor der
Ġh omes
Ġad or
Ġtr uth
ter n
ig ator
d om
Ġp ony
et e
Ġh ook
Ġru bbed
Sara h
Ġun cle
Ġbus hes
Ġcush ion
Ġgr own
Ġsp ell
Ġcoo ked
Ġador able
Ġch alk
Ġso ar
Ġimp atient
Ġsk in
Ġshell s
Ġthem selves
Ġp urse
Ġc elery
Ġtr ay
Ġpr un
Ġpen gu
Ġse al
Ġsn iff
Ġlive ly
Ġwall s
Ġall igator
Ġc ase
Ġrad ish
Ġsay ing
Ġspe ak
Ġdist ant
ill a
Ġs end
Ġmotor cycle
Ġclean ing
Ġboun ced
Ġfor th
Ġcount ing
Ġme at
Ġspin ning
Ġ ed
Ġch ain
Ġsle pt
Ġent h
Ġp it
Ġb in
Ġste ak
Ġmar ry
Ġfil m
Ġsur f
ur b
Ġdestro y
eb ra
Ġbeh ave
us ia
Ġwall et
Ġmet al
Ġenth usia
Ġsk ip
Ġbig gest
is ion
Ġwip ed
Ġavoc ado
ĠS h
v ator
eb ook
Ġnot ebook
Ġpo st
Ġimp ro
Ġlaugh s
ch air
Ġpat tern
Ġband age
Ġele vator
Ġd ive
ĠBu zz
Ġsk ipped
Ġsh ut
Ġunl ock
Ġdi ary
us ie
j ect
de st
Ġdist urb
ra ge
at ing
ag ed
Ġbag s
Ġshow ing
Ġpo le
Ġcl ub
Ġo y
Ġear th
Ġz ebra
Ġarm chair
Ġgather ed
Ġn urse
b ul
ĠP oppy
Ġtem p
Ġen c
Ġjelly fish
Ġswe ater
Ġcom pl
Ġstr anger
Ġsc rew
G ive
Ġf ather
bul ance
Ġb ump
Ġl ime
Ġam bulance
Ġsk ull
n am
Ġloud ly
Ġfold er
Ġmix er
ĠL ulu
G ra
Ġsh ield
Ġjourn al
it o
Ġlibr ary
ĠP eter
Ġbutton s
ĠB et
Ġplay ground
Ġin k
Ġc ity
Ġpoin ting
Ġtruck s
Ġlight s
Ġt ummy
Ġst ation
Ġdecor ate
ir it
B illy
Ġpre p
qu ito
Ġfall s
ĠF o
ent ion
Ġf u
Ġher b
n ger
Ġgu ard
ĠP olly
ĠBird y
l ies
Ġknow s
Ġor nam
Ġornam ent
Ġmo dest
Ġmo s
ob y
Ġatt ic
Ġc ord
Ġpol ish
Ġmos quito
ct op
Ġsal t
umb led
Ġy et
Ġwhen ever
Ġmar ble
Ġp le
Ġres c
Ġdisapp eared
Ġve st
Ġstraw berry
ce ed
ĠM um
Ġpir ate
Ġon ce
Ġbrother s
Ġspl it
Ġit ch
Ġa ut
Ġk ay
Ġh ipp
ctop us
Ġfoot ball
Ġl ed
ke le
kele ton
ur ing
Ġsupp ort
Ġdri ving
Ġcup board
Ġc able
Ġcall ing
Ġwis hes
ak y
Ġtri pped
us hed
Ġcomp let
ob ile
Ġo ctopus
Ġro ot
Ġa dded
Ġm ild
Ġsun g
om obile
Ġed ge
Ġkay ak
?" .
Ġsuc ceed
Ġdeterm ined
Ġco al
st ic
Ġaut omobile
Ġcompl ain
Ġthu nder
Ġread ing
W ell
ut es
p ar
Ġst ack
Ġsug gest
Ġkind ness
Ġenthusia stic
Ġdraw er
Ġsnee ze
Ġfle a
ĠL ittle
Ġyog a
Ġcart oon
Ġgr owl
ht ub
Ġri bb
Ġme adow
Ġmean s
Ġg or
Ġbat htub
Ġgo lf
l a
oph one
Ġha ll
Ġche ss
Ġm ath
Ġs keleton
Ġve il
Ġhunt er
Ġfl ame
w ork
Ġpo ke
l asses
Ġpen ny
Ġvide o
Ġcup s
Ġmat t
Ġtr oph
Ġsung lasses
Ġrep air
Ġsp ear
Ġhipp o
Ġglow ing
Ġit self
Ġoy ster
Ġdraw ings
Ġtele ph
Ġmuff in
Ġsw itch
Ġcost ume
Ġre pe
Ġz ipp
, âĢĿ
Ġd ess
Ġm aze
Ġar g
ir on
ri c
Ġpast ry
Ġp un
Ġmin utes
Ġroll ing
Ġhand le
Ġpa cked
Ġmake up
ĠPe ople
Ġteleph one
ĠM iss
a it
Ġp ine
Ġwaff le
c ase
Ġg ear
Ġpe ar
Ġkn ight
a ving
Ġmatt ress
Ġsho cked
Ġpow der
Ġhe dge
Ġpack age
Ġfr ame
Ġtroph y
in es
Ġc ob
Ġmiss ile
Ġw ife
Ġman aged
Ġenc ou
Ġse par
Ġo k
w eb
Ġst airs
Ġr ot
ur ch
t ime
Ġc amp
Ġgra pes
r ophone
Ġmag az
Ġcol our
Ġstr ugg
he ad
o ld
p er
Ġbasket ball
B ye
Ġcob web
ĠT ina
Ġf ile
R e
ĠT weet
Ġw ool
Jim my
es day
S ee
Ġg asp
ke ep
Ġper m
Ġey e
Ġmic rophone
Ġle ash
ie w
ĠD an
Ġwe ep
Ġsaf ely
of fe
Ġte ar
Ġbark ing
at ure
offe e
Ġv iew
Ġslid es
Ġst aff
Ġbanan as
Ġstep s
Ġgor illa
ist ol
Ġsp irit
Ġgigg led
Ġt ask
w as
Ġho c
Ġv end
ĠR ose
Ġth ose
Ġhoc key
Ġcool er
J ill
c ing
Ġsail or
was her
Ġear ly
Ġmar ched
Ġhot el
ĠL ook
Ġfl our
Ġmin t
Ġph oto
ro sc
Ġrem ain
Ġdess ert
ĠP ete
il ot
Ġ oft
ot ter
Ġoft en
h ic
Ġch urch
Ġ otter
Ġcook ing
Ġgra ndpa
Ġve hic
ch or
Ġsaus age
Ġe ither
rosc ope
Ġmed al
Ġf ive
Ġtemp le
Ġdish washer
Ġbase ball
Ġt en
Ġpretend ing
Ġp istol
Ġpe e
Ġtool s
Ġs ight
Ġre ver
Ġorgan ize
Ġvend or
Ġkn ock
Ġthin king
Ġbatter y
Ġfire man
Ġg rill
Ġ iron
Ġopen s
Ġ ow
Ġo il
Ġreal ised
Ġsn e
Ġla ser
Ġpat ch
Ġh ours
Ġsand box
Ġr ise
' d
Ġan chor
en se
ĠG ive
se um
ctor y
Ġwh ip
Ġsh ort
Ġtra sh
Ġrh in
n ey
ĠBet ty
Ġlot ion
ĠS unny
Ġmu seum
Ġfa ctory
Ġm ay
Ġcard board
at ely
Ġwar d
Ġval u
ug ged
Ġh ive
ap ers
A l
Ġward robe
Ġc offee
Ġmess age
Ġc ell
Ġnap kin
uc et
Ġtow ers
Ġu r
ail able
Ġhang ing
in ation
keep er
F luffy
Ġblack board
l oo
ĠZ oom
Ġme m
Ġp ilot
Ġqu it
re ady
r on
Ġexcite ment
Ġpengu in
e er
Ġre ward
ĠR ob
Ġpick ing
Ġche ck
Ġfa ucet
ĠSn ow
Ġ ig
ĠPipp in
Ġdream ed
pl ace
Ġpass port
az or
Ġcan e
Ġig loo
Ġst umbled
ĠB essie
Ġju icy
ar oo
Ġset t
ang aroo
Ġfree z
pl ay
Ġav ailable
Ġal ready
Ġall owed
Ġhold s
Ġbat he
Ġnew sp
Ġfing ers
im ney
Ġha nger
ht ray
Ġtorn ado
Ġfis her
Ġs ize
Ġo ak
Ġl end
Ġla und
Ġlaund ry
Ġch imney
Ġk angaroo
ĠEvery where
Ġmu le
Ġm en
bo dy
Ġtell ing
Ġcher ries
Ġno vel
Ġp al
E m
Ġm ummy
Ġspill ed
Ġnot ice
Ġpract ice
amp oo
Ġenjoy ing
Ġcomplet e
Ġg ain
ar ian
oc er
Ġre ind
Ġsu b
Ġmic roscope
Ġfire place
Ġdis play
Ġshr ink
Ġimag ine
ĠZ ip
Ġhur ry
Ġfast est
Ġmagaz ine
and a
Ġcabin et
g en
W ait
ĠSp ike
Ġas htray
Ġpal ace
Ġcow s
Jo e
ac hes
Ġr ake
Ġfall ing
ocer os
Ġimpro ve
Ġsk irt
Ġstar ed
ur ed
Ġdiscover ed
Ġreind eer
a id
Ġsil ver
Ġtra il
Ġro ared
I s
Ġmin er
Ġt ub
Ġf og
c ome
Ġa x
st airs
Ġb ill
ict ion
Ġtall er
Ġfisher man
Ġh ut
Ġhapp ier
Ġvalu able
Ġto ile
Ġp or
v ision
Ġob ject
iction ary
Ġo ats
Ġsh ampoo
Ġoff ered
Ġrhin oceros
Ġho les
Ġboot s
Ġclimb ing
Ġbl in
Ġzipp er
Ġtoile t
Ġstret ched
Ġnam es
O w
v ice
ie st
Ġjewel ry
Ġtele vision
Ġlisten ing
Ġjoke s
Ġs ym
Ġpro v
Ġbath robe
ĠHe re
Ġax e
ale nd
Ġfu el
Ġspark ly
Ġstop s
Ġjump s
Ġc alend
c u
M ummy
Ġbu ry
bo l
Ġperf ume
ĠK im
ĠS usie
Ġpress ed
l u
ĠT oby
Ġre ce
Ġne at
Ġsn ap
Ġpo pped
Ġgasp ed
ree k
Ġatt ach
M r
Ġsym bol
Ġp apers
Ġcalend ar
ar ry
Ġun pack
Ġop era
Ġc reek
Ġres ist
Ġd ictionary
Ġt una
Ġsub way
Ġcho se
Ġfreez er
Ġletter s
Ġpin ch
z ag
Ġsu per
Ġpor ch
Ġbike s
af fe
Ġspo ke
Ġany way
Ġli e
Ġhelp er
ĠM ar
Ġwe igh
ic hes
Ġsh aking
Ġcom fort
Ġtight ly
Ġs on
Ġnewsp aper
Ġbook case
ig zag
Ġr azor
Ġsandw iches
ĠA re
Ġagain st
aur ant
Ġ ext
Ġstick ers
Ġbl ouse
Ġswing ing
Ġrest aurant
Ġg ym
Ġdis ag
t e
Ġsquirrel s
Ġvehic le
Ġp ed
d el
Ġn ature
iv al
Ġbelong s
x y
Ġswam p
Ġbutterf lies
Ġgrow ing
om ed
Ġbuck le
Ġmust ache
Ġinc lu
Ġal arm
Ġstir red
Ġbill board
Ġli p
Ġbe ep
Ġfe st
Ġlight ning
Ġdist ance
Ġhun g
Ġc ards
ut or
L ittle
Ġob ser
Ġrub ber
og n
Ġag ree
Ġhat e
Ġs of
Ġte ase
Ġrec ogn
f ast
O uch
i k
Ġser ve
Ġdoes n
Ġbee f
Ġmusic ian
Ġmo del
e f
Ġad vice
asp oon
Ġcri b
Ġsweet ie
l ter
Ġsof a
Ġbooks he
st ri
Ġcir cles
Ġbreak fast
Ġblue berries
Ġg as
Ġfest ival
Ġgir affe
Ġsepar ate
Ġshe lter
Ġt utor
as is
Ġair port
Ġo live
Ġbookshe lf
Ġr ail
Ġfrog s
Ġte aspoon
Ġj unk
Ġrever se
Ġrid ing
Ġdra in
Ġple ased
ĠMr s
Ġwip e
Ġa head
Ġso il
Ġpain ter
Ġkn ob
Ġo asis
ĠT eddy
um mer
Ġresc ue
Ġle aving
Ġpee ked
Ġl umber
Ġpo ked
Ġsquee ze
Ġch ance
Ġtrain s
Ġsl ipp
Ġext ra
Ġre fused
rm omet
re s
Ġqu iz
Ġin s
Ġp age
Ġbird c
ĠDo lly
Ġru les
Ġwin ter
Ġpoin t
Ġhappen s
Ġsound ed
Ġdisapp ear
rmomet er
Ġdanc er
Ġbirdc age
ĠGra ndpa
Ġli c
Ġthe ater
Ġwas te
Ġwe ather
Ġo stri
Ġsw ung
Ġcarry ing
Ġinv ite
Ġgo al
D aisy
Ġre ef
i ence
Ġtr ade
ĠP andy
Ġcl iff
if orm
ang u
Ġlaw n
Ġun iform
Ġacce pt
Ġlean ed
ol a
Ġadm ire
Ġaccident ally
Ġst om
Ġfor t
Ġl angu
r iger
riger ator
Ġpast el
bb les
Ġtw ir
Ġb et
!" .
Ġref rigerator
Ġpe ek
re nder
Ġblin ked
Ġs uff
Ġp anda
Ġdream ing
Ġstar ts
n a
Ġany where
ĠL ee
Ġimag ined
Ġrem ove
n ight
i um
Ġclass room
Ġce iling
Ġcar ing
Ġshow er
a ked
Ġlic ense
Ġgra nd
Ġst able
Ġthe rmometer
Ġmiss ing
ast ic
Ġmonkey s
Ġs ummer
Ġwar ned
ĠW here
Ġbri ck
Ġab ove
Ġc udd
ec ted
Ġlab el
Ġproblem s
Ġap ron
Ġch asing
am ber
Ġs ent
Ġlaw y
Ġl id
m ed
Ġrespect ful
it ure
urn iture
Ġzoom ed
ugg age
Ġb ent
Ġpre vent
Ġfrown ed
Ġf urniture
Ġp ages
Ġsun set
Ġostri ch
Ġmistake s
Ġwindow s
is on
Ġl uggage
Ġsuggest ed
ation s
l ow
Ġgra pe
Ġribb on
Ġw ine
ĠC l
Ġj ail
Ġold er
Ġshout s
ĠC o
Ġw igg
uc ture
Ġstr ucture
Ġspo il
Ġlion s
Ġch amber
e or
Ġfix ing
Ġfind s
Ġf ought
Ġdel ay
Ġsearch ing
Ġhand ed
D id
Ġun ite
Ġlawy er
Ġmeet ing
Ġpa ir
Ġbright ly
Ġsurpr ises
Ġcho ice
ĠE llie
Ġar t
ad ium
Ġfav our
eter in
eterin arian
Ġst adium
ĠU n
C h
Ġproud ly
Ġv eterinarian
Ġsl ip
ro d
ik i
Ġchair s
v et
ĠB oun
Ġsad ly
Ġinc re
ĠS pe
Ġb erry
ĠB ow
Ġpudd les
ĠC arl
Ġint rod
Ġran ch
ve al
Ġc ur
Ġfavour ite
Ġarg ue
Ġ V
You r
Ġadm ired
Ġgrab s
Ġhum an
Ġr ac
Ġexcited ly
Ġste am
m end
Ġin f
eor ge
th ank
Ġsa ving
s ity
Ġpus hing
Ġy ield
ĠHe l
Ġre veal
all ey
ol og
Ġremind ed
om mend
Ġle ak
Ġm all
a ul
ĠR ed
Ġsur render
Ġrec ommend
Ġapp l
Ġwe ap
cu ss
Ġreg ret
Ġhar b
Ġminer al
Ġv alley
Ġmat ches
Ġforg ave
Ġput ting
Ġeven ing
el come
Ġsnee zed
Ġa w
ec ause
Ġr ushed
Ġsp ade
Ġap olog
Ġpu p
Ġdis cuss
ĠBu zzy
Ġign ore
Ġlangu age
ĠB ig
Ġpl ates
Ġprep are
Ġcount ry
Ġpull s
Ġpl astic
ĠB ill
Ġsniff ed
ĠJ azz
Ġharb or
Ġsho vel
Ġflo at
Ġrepl ace
Ġme as
Ġsupp ly
Ġra ise
Ġf re
ĠN ext
Ġstri p
Ġdoor s
Ġcar ed
Ġso cks
Ġrest ore
Ġmyster y
Ġli ves
Ġstick er
Ġs udden
Ġkind s
ric ane
Ġslipp ery
Ġplay er
ar i
ĠO w
er o
Ġpan ic
id ay
her o
Ġhop ing
Ġsh one
le x
Ġsuper hero
Ġbe g
ĠB inky
ĠM ike
Ġdelight ed
Ġg ro
au d
Y ay
ch an
Ġchick ens
Ġcolour ful
Ġbre at
Ġrain ed
Ġshould er
ĠAl ice
Ġcla w
Y uck
Ġsoft ly
Ġho l
ĠBu bbles
Ġhol iday
Ġp ort
r ise
Ġ âĢ
Gra ndma
ic er
o of
Ġbark s
Ġplan es
M ary
Ġthrow ing
as on
Ġb end
ĠFred dy
Ġshake s
Ġkne el
Ġend ed
Ġshiver ing
Ġpus hes
Ġinf ant
Ġsun rise
Ġfre sh
Ġthank s
ĠO live
im ed
w ards
Ġt ip
Ġpoin ts
Ġsuff er
Ġfree ze
Ġkeep ing
Ġco pper
ĠSpe edy
ĠW ould
Ġgigg le
ĠP at
Ġsmell s
Ġde ar
chan ic
c ast
Ġprov ide
Ġcher ry
Ġent er
Ġdis hes
Ġhur ricane
ĠE nd
Ġappl aud
N ext
Ġme owed
Ġhead s
Ġun h
co nd
in ce
Ġm ass
Ġme chanic
Ġsand cast
Ġbright er
Ġse cond
Ġth umb
Ġmen u
Ġlet ting
Ġlaug ht
Ġweap on
Ġe vent
Ġw re
Ġ x
Ġspray ed
Ġlaught er
Ġfeel ings
Ġcla pping
W ill
Ġcast les
em ent
ĠO r
oph ie
Ġsplas hing
ac ked
ick y
c er
app ing
ĠF l
Ġn avy
Ġsc ore
Ġd em
Ġstick y
Ġroom s
Ġfl ies
Ġuniver se
ig i
Ġr ow
Ġunh appy
ĠD ave
Ġgre edy
Ġd are
Ġal ive
Ġen er
Ġbreak s
Ġcou rage
Ġinv it
Ġrepe at
Re ady
Ġdem and
Ġtrust ed
Ġsome where
arl ie
L isa
er c
Ġprun e
Ġ Y
y ear
Ġsk ill
Ġpar ts
Ġwre ck
o e
Ġeat en
Ġexam ine
b les
A ll
Ġm ention
en ry
Ġrain ing
ĠHel p
B uddy
Ġthrow s
Ġjog ged
Ġstar ting
que st
Ġr ush
Ġpo ison
Ġcont ent
Ġv ac
he art
ĠZ oomy
Ġsp ort
Ġs igh
Ġpir ates
Em ma
ĠK iki
Ġstu d
Ġfl apped
Q u
Ġdrop s
Ġch irp
Ġspark led
Ġstre ng
Ġgi ven
A nn
Ġste el
Ġbump ed
Ġyaw ned
Ġsco ld
Ġto e
Ġmy self
ĠJohn ny
M ark
Ġshr ugged
Ġre quest
Ġe qu
Ġcoat s
Ġstreng th
Ġex erc
Ġpun ish
Ġsn ugg
Ġpa id
Ġuniver sity
Ġpig s
Ġscr atch
Ġtra cks
Ġpray ed
Ġcross ed
Ġfl ood
Ġup stairs
Ġimpress ed
ĠR u
Ġboun cing
Ġsquee zed
Ġwar n
Al ice
Ġbad ly
Ġex pect
g es
Ġrabbit s
Ġle ather
Ġmin ute
Ġn ation
Ġnew s
Ġt ide
ĠT ed
Ġclaw s
S h
Ġsweet heart
Ġbear s
Ġbu zz
ĠS m
y th
Ġstraw berries
Ġhe at
Ġvac ation
ĠM ummy
Ġsandcast le
Ġsett le
Ġobser ve
Ġexplor ed
yth m
ĠL illy
Ġyaw n
Ġbelie ved
Ġhis t
ĠL ola
Ġnet work
ĠS que
in king
i ally
Dad dy
Ġhist ory
ĠH oppy
Ġhor ses
m are
Ġche cked
Ġto ur
ĠU nder
Ġchee k
ĠM andy
Ġpl aced
Ġeas ily
Ġoff er
Ġspot s
s pec
Ġblue berry
Ġener gy
we en
Ġsnow ball
m en
ott en
ĠB ee
Ġimag ination
Ġbet ween
ĠG igi
iz es
spec ially
Ġd aisy
Ġstom ach
Ġwa ving
Ġv room
ree ze
re at
Ġmass age
Ġso ak
Ġb aking
Ġsaf ari
Ġblow ing
Ġprun es
Ġrh ythm
Ġst air
Ġins isted
qu ake
Ġent ered
Be fore
Ġwr iting
Ġbeaut y
Ġnight mare
Ġb other
Ġp alm
Ġtw isted
Ġpo ppy
Ġsc oop
Ġ ing
ip ment
Ġhill s
Ġbra in
n oon
Ġafter noon
Ġequ ipment
he st
Ġe specially
Ġs ir
Ġing red
ap a
Ġno body
Ġingred ient
Ġburn ed
ĠS ee
Ġignor ed
xy gen
Ġearth quake
ĠSnow y
Ġcall s
Ġp ad
ĠFo x
Ġst y
Ġse w
m ble
Ġt ug
Ġle ar
Ġhear ts
Ġlear nt
Ġlemon ade
is ty
ill ie
Ġincre ase
J enny
ff ic
Ġmail man
Ġg az
Ġwhist led
ĠS k
Ġshop keeper
Ġback pack
F red
Ġperm it
Ġtre mble
Ġped al
Ġlem ons
Ġy ucky
ang es
Ġmove s
Ġintrod uce
Ġcra sh
ed n
Ġbean s
edn esday
Ġflo ated
itten s
Ġtra ffic
W elcome
Ġsl ap
Ġplan ned
Ġstri ke
Ġrac ing
Ġinclu de
res ses
Ġwag s
la imed
Ġwis dom
Ġp ur
Ġpri ce
ĠL ucky
Ġl uck
ĠFin ny
Ġfollow ing
ĠG eorge
ec ting
Ġp itch
ĠE lly
Ġbel ow
Ġm ama
ĠH ave
L e
Ġwe ight
Ġexc laimed
Ġbu ried
Ġfollow s
h ouse
Ġingredient s
t ain
Ġcom f
Ġrecogn ize
Ġf urt
Ġcand les
em ember
M imi
ri age
ĠW ednesday
ĠS u
ĠA lex
er ation
ore s
und ay
Ġap art
uc t
Ġmar bles
Ġteach ing
Ġgrowl ed
Ġhop es
ĠWh o
Ġcon f
Ġfold ed
ĠFin n
ĠP aul
Ġclose ly
Ġhe el
Ġencou rage
ĠS unday
ĠOw l
Ġz igzag
Ġpull ing
Ġchew ed
Ġboun cy
Ġd igg
Ġfurt her
Ġdigg ing
W oof
Ġwin ning
W ith
Ġim age
Ġd resses
Ġpuzz les
re c
Ġshout ing
c ery
Ġgro cery
Ġpeanut s
ĠD og
l ook
Ġch ores
Ġtw isty
Ġwhisp er
bb ing
Ġscr at
ĠI s
ĠFr oggy
Ġc ape
Ġsp ike
Ġsn ail
Ġworm s
h ood
Ġdeep er
Ġacorn s
Ġur ge
Ġexerc ise
Ġexp er
ĠWhen ever
ĠSque aky
ĠT illy
ĠGra ce
if i
Ġplan ted
ec ture
Ġatt ention
Ġcu b
Ġh on
ĠDan ny
Ġqu ite
Ġag re
Ġop eration
Ġunder ground
Ġcreature s
ĠM ittens
Every one
Ġl ecture
Ġbl ood
Ġs imp
or al
dd y
Ġhurt ing
Ġvan ished
Ġstrugg le
Ġwas hing
Ġinvit ation
Ġgif ts
Ġdress ed
Ġsol ved
g ie
ĠSh aring
Ġli cks
Ġsnugg led
i ppy
Ġmar riage
Ġb le
Ġquiet ly
Ġwar ning
Ġbreat he
Ġelephant s
Ġj azz
ĠS ophie
rec i
Ġfall en
Ġs izes
Ġd ried
or ies
Ġneighb our
Ġland scape
u esday
Ġm ice
Ġspr ink
ĠâĢ ĵ
ĠBoun ce
Ġeag erly
Ġsail ing
Ġapp reci
ĠCo co
Ġcount er
Ġpa used
ĠJoe y
ĠP enny
Ġo xygen
ip s
look ing
ĠG ood
Ġwor th
ĠR ock
B ecause
N ot
Ġshin ed
Ġre lease
Ġre aches
p ted
Ġbal an
ĠZ ara
Ġo h
is ses
Ġsty le
Ġbri cks
Ġk isses
Ġplay s
ĠT uesday
Ġgl o
Ġide as
igg ly
s ed
Ġin st
B ella
Ġw ob
Ġfirework s
uc ked
Ġsee ing
Ġfl ap
r ight
Ġtomato es
Ġacce pted
ĠP ip
To day
Ġtre mb
The se
ĠR os
Ġmem ory
Ġbl ink
Ġmu ddy
Ġmar ried
ĠCh arlie
Ġwag ging
op s
Ġwander ed
Ġex it
R emy
Ġcap tain
un ately
Ġfa sh
ĠAnn ie
ipp ing
Ġglo ves
Ġd uring
ra ged
Ġpet als
Ġrece ive
ĠEvery thing
ĠE ventually
et ch
Ġwater ed
Ġpillow s
Ġres p
Ġwe b
ĠP inky
Ġman age
Ġbr ings
Ġcake s
i ved
Ġpin ched
Ġdestroy ed
n ce
Ġprin ter
Ġvan ish
Ġall ow
Ġfash ion
Ġhad n
S urpr
Ġtreasure s
up s
Ġwor se
ĠR o
ĠP apa
ĠBlue y
Ġscatter ed
Ġhit s
Ġve l
Ġapp ear
d o
Ġcatch ing
Ġvel vet
ĠF ifi
Ġsor ts
Ġdisag ree
x u
Ġmem ories
Ġscold ed
Ġb ur
Ġor anges
Ġb ones
Ġseat s
Ġher s
Ġsn apped
Ġsign s
Ġsit s
Ġran g
Ġpe ars
Ġgaz ed
Ġra ised
B l
u xu
Ġs i
Ġprin ts
ĠGo d
Ġz ipped
ĠMar ia
Ġfr o
Ġsh ot
Ġslid ing
Ġp ies
Ġclimb s
Ġeas ier
Ġskill s
c cer
ss ible
Ġforg otten
Ġtwir led
Ġblanket s
e ster
Ġdiffere nce
Ġba ked
ester day
or ted
Y um
ag gie
is ing
Ġcut ting
Ġgold en
Ġl uxu
Ġk itty
Ġse ason
ĠT w
Ġso ccer
Ġnow here
Ġd ared
Ġcr ow
ĠH enry
Ġbit es
a h
Ġcelebr ated
Ġl ung
ĠH arry
an ny
Ġsor ting
Ġstra ight
st ers
ch oo
ch ie
Ġunl ocked
Ġble ed
ap ed
Ġwelc omed
Ġcoll ected
d ing
Ġvis ited
Ġour s
Ġspoon s
Ġjog ging
Ġst itch
Surpr ise
ĠSp ark
med i
Ġem er
medi ately
Ġto ng
Ġis n
Ġtra ve
Ġs ince
Ġwin ner
Ġpret t
um ble
Ġru in
O k
Ġatt ached
ĠT ony
M oral
Ġweep ing
Ġmarch ing
ĠE ach
Ġz ero
Ġsimp le
Ġshould n
Ġluxu ry
Ġguess ed
Ġstuff ed
m m
Ġsell ing
Ġfam il
Ġpet s
ct ion
Ġcre ated
Ġwa ist
Ġur ged
Ġbow ed
Ġflo ating
ĠW iggly
ĠSm ith
Ġking dom
Ġby e
ĠK ing
Ġolive s
Ġkick ing
Ġv ict
Ġpun ished
Ġgr ant
ĠB aby
Ġto es
ĠL iz
s it
Ġmus cles
ĠRos ie
Ġmel ted
Ġbed s
Ġjewel s
Ġgr in
Ġunderstand ing
ĠS andy
Ġcollect ion
Good bye
Ġmeas ured
Ġto re
Ġsl ice
ak er
omed ay
Ġcra s
v a
' ve
Ġac ted
i ers
Ġtra pped
Ġl ined
fort unately
Ġencou raged
ĠBe fore
ent s
ĠW ally
Ġwe st
Ġwaff les
r in
Ġrece ived
e ath
Ġpattern s
Ġme ow
Ġbr us
in o
Ġmouth s
r ing
ĠK ate
k ins
Ġb ang
Ġprin ted
Ġpe aches
ad ed
un e
Ġb reeze
Me ow
Ġs omeday
Ġpotato es
Ġsold iers
ĠM illie
um es
Ġexper ience
Ġshe d
Ġpup il
Ġdrink s
Ġpresent s
. .
ĠRu by
Ġfire f
ĠT una
Ġsur round
Ġn one
e ep
Ġvoice s
Ġdr inking
e ve
os ed
is hing
Ġrelax ed
Ġbre aking
Ġtong ue
ĠUn cle
Ġhur ried
c us
Ġtw ink
Ġvict ory
Ġpaint s
Ġfl at
Ġcost umes
iss ion
Ġwhist ling
Ġmention ed
Ġdisag reed
Ġbeg ged
Ġte asing
Ġpe arl
Ġs ip
Ġf etch
Ġperm ission
Ġstr o
Ġs ix
ake s
ve st
ĠThe se
Ġapp ro
Le o
Ġe sc
Ġhig hest
Ġsk ipping
Ġfis hing
Ġsor ted
ĠM ay
Ġring ing
Ġwat ches
Ġto night
Ġp ra
Ġop in
sh ip
ic ing
ĠB o
Ġlet s
Ġ Qu
Ġim mediately
Ġperfect ly
Ġshadow s
Ġsp it
Ġwarm th
Ġremain ed
Ġherb s
t her
w alk
irr ing
ĠIt s
Bob by
ĠC he
Ġsne ak
J en
Ġlip s
Ġkneel ed
Bl ue
Ġcol ours
" ,
ut ter
Ġside walk
Ġcont est
Ġcartoon s
H a
ĠT oto
ĠFo llow
Ġstamp s
Ġag o
o ved
Ġe ast
Ġstr ang
Ġhead ed
ĠB oo
ĠG r
Ġwork s
Ġlady b
Ġf ed
Ġsupp osed
Ġli ck
Ġroot s
Ġcr unch
Ġmix ing
Ġdecor ations
Ġemer gen
Ġkn own
Ġmelt ing
ĠSu zy
Ġinst r
Ġl ily
Ġrest ed
Ġl ines
M andy
Ġla id
ĠA b
ĠJ ul
et y
Ġstud ied
s ing
Ġwigg le
Ġsucceed ed
Ġset ting
ĠS low
Ġcon es
Ġsh ock
Ġstrang ers
ĠRock y
Ġland s
Ġbr id
Ġtwig s
Re ally
Ġgirl s
Ġtheir s
!" ,
Ġfield s
Ġord ered
Ġst irring
Ġscream s
ĠD r
b oo
Ġr ul
Ġal right
Ġmoment s
Ġsteal ing
Ġm ister
d ed
av id
And y
Ġbrave ly
ĠB oth
! '
Ġplay time
Ġt ucked
Ġin vest
Ġscrat ched
Ġri pped
Ġrest ing
ĠCl ara
Ġburn ing
Ġinvest ig
is hes
Ġbrid ges
Ġt ext
B ird
ĠCh icky
p lease
Sam my
Ġsett led
ab ies
Ġoff icer
Ġmat ched
Ġtext ure
Ġa chie
Ġwait s
H appy
ĠSk y
Ġturn ing
P eter
or ed
Ġtremb ling
ist en
at ie
id s
Ġnail s
ĠJ ames
Ġmuff ins
ĠSome one
Ġpile s
Ġesc aped
Ġinvestig ate
Ġbro om
Ġso re
Ġladyb ug
Ġadm ir
os ity
Ġb abies
Ġsil ence
Ġsister s
Ġth reat
ĠPe pper
Ġappreci ate
Ġemergen cy
Ġdad s
Ġsl apped
Ġare a
id es
Ġansw ers
Ġchew ing
Ġser ved
Ġimport ance
Ġsaf ety
ĠH op
W ould
iz ing
B u
Ġkey s
B oo
Ġw iz
Ġhe n
Ġpu pp
ĠL ater
Ġspark le
E lla
Ġso ared
Ġtouch ing
all en
Ġs ings
ig ail
ant ly
Mom o
b ers
Ġkeep s
Ġch allen
Ġamaz ement
ĠD ino
Ġhe sit
Ġso aked
Ġtw in
Ġd ire
Ġreveal ed
Ġit em
Ġwr it
an na
z ing
ache l
ĠM e
Ġfood s
ĠZ igzag
Ġdinosaur s
Ġrecord ed
Ġrid es
Ġtick le
Ġin ch
Ġv et
Ġtrip s
Ġcur led
Ġwiz ard
Ġglow ed
Ġqu ack
ĠA n
M mm
ĠFr og
Ġh i
Ġbe amed
Ġw ink
Ġsho pping
Ġha ted
Ġwood en
Ġeat s
ĠB ug
E ventually
Ġpra ised
Ġstudy ing
Ġcraw ling
Ġrul er
Ġgu y
Ġg ust
Ġbring ing
Ġbrus hes
ĠSomet hing
Ġdown stairs
Ġmitten s
C at
Ġspace ship
Ġtast es
Ġfl av
Ġn apping
Ġshoot ing
Ġmark s
Ġcudd led
he llo
pl ash
a les
a ved
Ġd ot
Ġsprink les
ĠM o
Ġfamil ies
Ġcoll ecting
Ġf ut
Ġmon sters
ĠH appy
ĠO ut
Ġmeas uring
Ġfut ure
Ġth rill
ĠF irst
' .
ir ts
Ġres ult
Ġo at
Ġappro ached
Ġcrunch y
J ake
a ct
ĠR abbit
U n
Ġrem em
Ġbleed ing
Ġremem bers
Ġbe at
Ġn icer
Ġdisturb ed
Ġsne aky
Ġlead er
Ġsc aring
ĠH ope
Ġpe el
h ind
ĠN ot
Ġneighbor hood
O r
Ġgre y
Ġfire men
Ġno on
Em ily
ĠSt ar
Ġmot ion
Ġapolog ized
Ġwe ighed
Ġpo ssible
ĠD id
S omet
u es
C l
Ġloo se
Ġticket s
Ġnap s
Ġpr ide
Ġyou th
Ġswim s
ĠH o
Ġstr ings
p ed
Ġrecogn ized
Ġgain ed
Ġsi ren
Ġcras hed
Ġpo king
Ġwonder s
el vet
Ġtri cked
c ious
h a
f ied
Ġwant ing
Ġo be
Ġdraw s
om ing
. '
Ġwork er
l s
Ġsees aw
Ġopin ion
Ġzoom ing
Ġprep ared
Ġscoop ed
Ġgrin ned
unn ies
Ġyell ing
Ġpoem s
Ġhapp iest
Ġa we
Ġdog gy
ĠL izzy
ĠSlow ly
Ġact ing
ĠBe ep
Ġsne aked
Ġche f
Ġe ff
ĠAl ways
Ġown ed
Ġresp ons
oy s
en a
Ġkn elt
Ġany time
Ġped als
O llie
Ġb unnies
Ġdecor ated
Ġstr uck
id ed
Ġagre ement
Ġsecret s
Ġtall est
Ġp ause
Ġhorn s
ĠS qu
Ġfr ost
Ġobe y
riend s
ĠSt op
og o
R emember
Ġbeh aved
Ġdecid es
H ave
Ġ Once
Ġt ugged
l ier
z en
Ġsl im
Ġs ides
Ġspark ling
Ġkeep er
Ġwo of
Ġchirp ed
i en
Ġgood night
T r
ind y
Ġrepe ated
m other
Ġpre cious
ĠR ay
r s
u d
Ġclap s
Ġcont ain
aff es
Ġour selves
Ġsnowball s
all ow
Ġgir affes
Ġkind ly
Ġbalan cing
Ġspend ing
Ġwrit es
ay s
pp ers
om as
Ġfro zen
ĠL ike
Ġhis sed
Ġpr op
ĠSt eve
Ġfrost ing
F irst
Ġeff ort
Ġstrugg led
Ġbuzz ing
Ġadmir ing
Ġre le
Ġsweet ies
ĠV elvet
ig gy
Ġslim y
Ġbr ushed
Ġbloom ed
Ġpol ished
ar th
ĠZ oe
an ted
ĠA m
ĠM aggie
S usie
Ġcomf y
Ġstay ing
Ġb oo
D ucky
Ġthrill ed
is dom
Ġbe side
Ġpocket s
Ġcomp le
Ġrock ing
ur ry
Ġru bbing
Ġear lier
Ġe ight
S p
A h
ĠA unt
Ġseem s
Ġr ust
Ġy esterday
Ġtrave led
it ies
Ġmach ines
Ġbo om
ĠK eep
ĠSt itch
Ġfold ing
Ġrad ishes
Ġzoo keeper
Ġcra cked
Ġhug ging
Ġlo ving
Ġpebb les
Ġopen ing
Ġsurround ed
Ġg aze
Ġspray ing
Ġrem oved
Ġdemand ed
Ġpaint ings
Ġcuri osity
o h
am ie
Ġhard ly
ĠG reen
Ġst ing
Ġhon k
Ġpet ted
Ġcat ches
ed ding
Ġcir cus
Ġstri pes
ĠR achel
Ġload ed
Ġmatch ing
Ġpot s
Thank s
ĠPipp a
Ġpow ers
Ġsplas hes
Somet imes
ĠD avid
Ġto ss
Ġst are
ĠB ree
Ġbe lly
i bb
Ġapolog ize
Ġwhat ever
Y ummy
er n
Ġribb ons
Ġcomf orted
Ġro cked
Ġex pected
ĠJ oy
Ġstrugg ling
ĠBird ie
Ġdes er
Ġdec ision
Ġste ep
w h
Ġneighb ors
Ġgr anted
Ġprot ected
D uring
Ġsmile y
Ġchase s
ĠM illy
Ġpur red
Ġdi ving
Ġeag le
an a
Wh iskers
Ġsad ness
Ġcr umb
ĠFr ank
Ġroad s
Ġli ed
Ġorgan izing
Ġscr u
Ġhero es
ĠM at
E x
Ġd ipped
Ġarg ued
Ġgo als
Ġsaf er
low ers
Ġsun light
Ġpastel s
ĠBoun cy
ĠW ater
Ġdisco very
Ġt im
R o
Ġvill ag
Ġdrag ons
u se
Ġpe ered
Ġbuild ings
Ġbe ard
ĠAb igail
l oe
Ġpart ies
ĠRob by
Ġbucket s
R ex
Ġw edding
Ġan n
Ġfl utter
Ġpol ishing
Ġplanet s
Ġfa sc
ĠW atch
Ġcrab s
Ġsaus ages
Ġrele ased
Ġtail s
ĠG ogo
ir a
ĠCh r
Ġar gu
u ke
Ġwigg led
Ġcont ro
Ġsl ed
ĠJ u
Ġcle aring
Ġte ased
Ġargu ing
ĠC ar
Ġro aring
ĠR emember
Ġbott les
Ġdrag ged
Ġgather ing
Ġair pl
Ġpad d
Ġsh irts
Ġw id
Ġmov ies
Ġl imes
Ġteac hes
ĠD are
ĠJ ess
joy ed
Ġspid ers
Ġact ually
Ġcontin ue
Ġsigh s
Ġover joyed
Ġchallen ge
Ġcudd le
Ġcub es
Ġsmall est
Ġsit u
Ġso aring
Ġdri ves
Ġtal ent
Ġref res
Ġspark les
ĠS plash
Ġri p
ĠO lly
Ġgrand mother
Ġcut s
Ġfasc in
Ġman e
um m
Ġpe ppers
Ġpour ing
Ġpretend s
Ġb ank
Ġshiver ed
Ġwonder ing
Ġquarrel ing
t en
Ġdust y
Ġstretch ing
Ġweek s
Ġwhere ver
Ġvillag ers
Ġdark er
ĠK atie
j am
s ses
n joy
T iny
Ġ X
Ġon wards
John ny
le y
Ġr ings
Ġun ited
ĠBe ing
A choo
i b
Ġprett iest
Ġbe ad
ĠEvery day
Ġreal ize
Ġcomp any
Ġc aut
Ġpengu ins
ĠW isdom
Ġknight s
F r
L una
Ġbed time
ĠSp ring
âĢĿ .
ĠLe ave
Ġcomple ted
ĠP rin
anna h
Ġflag s
Ġact ions
ĠJ e
Ġkit es
ĠB ecause
Ġlearn s
Ġplay room
Ġpat ience
Ġgot ten
Ġshr ug
ĠZ ero
d am
Ġdest ination
Ġfe ars
ind a
ĠA va
Ġrep ly
aw s
Ġmountain s
Ġd am
Ġscru bbed
Ġrespons ible
Ġwire s
Ġm a
Ġpack ing
Ġapplaud ed
Ġfa ult
Ġwr ist
Ġcre pt
Ġph ot
ĠE arth
U h
Ġpencil s
Ġsat is
Ġstick ing
Ġwin s
Ġb aker
Ġvisit ing
Ġth ird
Ġw ound
Ġremind er
Ġjo king
Ġpe as
as hed
Ġuse s
Gra ndpa
Ġheal ed
Ġaw ake
Ġinstr uct
Ġcontro l
ĠF ish
Ġh itting
Ġscream ing
ĠP ut
Ġstar ing
ic orn
R ob
Ġun icorn
uck ily
l er
Ġbeg in
ĠF riends
ĠM oo
Ġhelmet s
ent y
ĠL ou
ic a
Ġcre ation
se ek
Ġwas ted
S illy
Ġforg i
Ġch ips
Ġtowel s
W atch
ĠBe hind
b ie
M ar
Ġmask s
Ġitem s
Ġfiref ight
la ire
Ġd ied
udd les
Ġout do
Ġgun s
Ġlollipop s
Ġgl itter
ĠH ippy
Ġhe av
Ġse as
Ġlog s
Ġsto le
Ġarri ve
Ġsc ales
Ġac com
Ġwere n
Ġper ched
d ie
St ay
Ġcand ies
Ġinstruct ions
Ġwho se
in ing
Ġpract icing
Ġsnake s
Ġpro ject
Ġachie ve
Ben ny
Ġsw oop
Ġpump kins
Ġbatter ies
Ġagre es
Ġchirp ing
Ġpar ked
Ġprot ecting
ĠC ra
Ġact iv
Ġpatient ly
Ġshould ers
Ġex act
Ġshe lves
g o
he e
Ġblow s
F o
ue st
ĠB op
Ġprom ises
Ġvide os
n ers
r r
Ġd ent
Ġairpl ane
Ġexam ined
jam as
Ġaccom pl
D oggy
Ġro ses
P oppy
Ġtask s
D ave
ĠHo ot
us an
Ġbead s
ĠCat ty
Ġbowl s
B unny
Ġc ough
Ġg uest
P ete
ĠL ove
Ġcrumb s
Ġlisten s
z es
ĠS un
ĠBrown ie
Ġrem ote
ĠO l
Ġal ien
Ġdolph ins
Ġphot os
Ġb unch
ant a
Ġcop y
Ġrequest ed
ĠB ye
c akes
Ġimpro ved
Ġcheer ing
Ġbra nd
Ġreach ing
ir m
ĠJ an
ĠChe w
ĠC uddles
T ime
ay la
B ad
ĠJul ie
ĠBl ink
Ġtim er
Ġcan s
ĠB y
Ġst ern
Ġrepl aced
ast er
Ġwork ers
Ġne ither
ĠE njoy
Ġconf l
Ġmis ses
M ike
G eorge
ath y
Ġcurtain s
uct antly
Ġrainbow s
es ome
Ġpass ing
Ġben eath
Ġcomplain ing
Ch irpy
d ies
Ġpa jamas
Ġpat ted
Ġroll s
Ġrub s
ĠSqu irrel
Ġoutdo ors
Ġt une
ĠPrin cess
ĠA bby
il o
M iss
L ola
R un
Ġla p
Ġclose s
Ġref use
Ġdrum s
ĠM ouse
Ġfa ced
Ġswe at
ĠB eth
Ġfill ing
ang led
Ġse ven
Ġbalan ced
ĠS orry
Ġpupp et
Ġqu acked
Ġresc ued
.. .
b l
Ġaw esome
Ġ 1
P aul
n eath
Ġmiss ion
Ġguy s
Ġconfl ict
Ġc ause
Ġv ent
ĠHow ever
ĠTh omas
ist le
n ie
Ġobser ved
Ġintrod uc
Ġru le
Ġcaut ious
Ġexact ly
Ġm es
Ġpast ries
Ġbec oming
ĠO ur
Ġ Yes
Ġpolice man
Ġdoctor s
Ġrocket s
u ly
y ou
l ay
Ġp out
Ġins ist
ĠS ad
Ġbloom ing
A n
Ġfair ies
av i
Ġtra ctor
Ġfar ther
ĠD ot
O ops
Ġteam work
z ie
G reat
Ġinclu ded
Ġremember ing
F ine
Z oom
ac ob
Ġcur ly
Ġfascin ated
Ġhelp ers
Ġtr uly
Ġsight s
Ġsl am
Ġf irm
Ġwob bled
ĠJ illy
Ġpad dle
Ġca used
Ġrecord ing
H enry
Ġst umble
Ġsp ong
Ġpray er
Ġtr aded
Ġstar fish
Ġneighbour hood
Ġth ro
Ġinv iting
ke lly
Ġsitu ation
Ġpoin ty
e ah
Ġsupp lies
ĠA lly
Ġval ued
Ġevery day
a is
g ers
ink le
Ġb are
Ġrel uctantly
Ġornament s
Ġprett ier
S ome
Ġadd ing
Ġdot s
Ġstay s
ara way
Ġtable s
Ġdes ert
Ġsnow men
Ġf araway
Ġste ady
Ġgl asses
Ġminer als
Ġth orn
Ġa st
ĠG et
o dy
ĠFo xy
ĠS ure
Ġun f
Ġus ual
Ġswoop ed
Ġus ually
ĠW elcome
ĠTw o
Ġfork s
Ġd ar
ĠQu ick
ĠJ amie
Ġwin ked
Ġpan s
Ġspong e
Ġsnee zing
Ġload ing
ĠJo sh
Ġsol ut
P olly
J ames
ĠS anta
Ġinsect s
Ġso bbed
ar ter
D og
ĠCh loe
Ġgrowl ing
Ġthro at
ag ull
s m
Ġno ses
Ġhome work
Ġscar ves
ĠW ant
Ġwind y
Ġconf ident
ĠD izzy
ĠSt ay
Ġsuperhero es
ĠK ids
Ġsm arter
Ġyour selves
or a
Jo ey
T ina
Ġlibr arian
Ġkick s
c oon
Ġitch y
Ġunder neath
Ġknow led
D ays
Ġgem s
Ġcom m
Ġknowled ge
Ġunt ie
ĠD uck
ĠF or
Ġjacket s
ĠH enny
Ġsurf ace
.. ."
Ġprince sses
i ar
ĠS kelly
H old
Y eah
Th ose
id o
e ed
Ġwarn ings
O ur
Ġro pes
Ġsquare s
Ġgigg ling
Ġread s
v in
Ġch oo
ĠM ix
Tr ue
Ġclown s
Ġyou nger
Ġbit ing
Ġse agull
Ġwear s
T oby
Ġdeliver ed
ĠM on
s on
ĠUn fortunately
p ite
D anny
Ġtwir l
Ġcomplain ed
E w
Ġbuzz ed
Ġcrow d
Mr s
Ġpadd led
ou ch
Ġst em
Ġon ions
Ġb umpy
ul ts
Ġdire ction
Ġpig gy
Ġdi ved
Ġstart led
ĠAnn e
Ġlean ing
Ro ar
Ġt angled
ĠP o
bb ie
ĠJ ones
Ġun p
Ġbad ge
th ough
ĠA nt
Ġde al
Gra ce
Ġv owed
Sh h
Ann ie
Ġnap kins
an es
Ġcover s
Ġtick led
Ġr isk
in t
Ġp ec
Ġyell s
Ġknock s
Ġc ous
cu se
t uce
Ġsatis fied
Ġrefres hed
ĠDo do
M aggie
ĠS c
Ġarrow s
P e
ĠRo ver
Un fortunately
Ġspe aking
Ġlet tuce
Ġwip es
Ġchoice s
ĠWh istle
Ġri pe
Bu zz
Ġhid es
Ġguess ing
Ġsign ed
Ġseek er
ĠQu ack
Ġslow er
Ġcreat ing
Ġfro ze
S ophie
Ġintroduc ed
Ġsing er
ĠS usan
Ġc ent
Ġjo ked
Ġexplore rs
ang ing
Ġpray ing
Ġprov ided
ugg les
Ġtoast er
Ġav o
Ġsque al
ĠMat t
Ġdiscover ing
ĠD ara
Ġref le
Ex cuse
Ġpay ing
Ġwr itten
ĠJe ff
Ġmushroom s
ĠL ion
ĠP aws
Ġmagnet s
Ġkne es
Ġ Ġ
Ġhid er
Ġwander ing
Ġimag es
ence s
Ġbare ly
f it
Ch arlie
Ġrest ored
ĠW ink
Ġbeh aving
Ġst ung
Ġlead ing
ad os
?" ,
Ġmar ked
Ġtip to
br ush
ĠAs h
e al
T eddy
Ġgre et
ll ed
Ġch uck
Ġn ine
Ġbra very
ĠD ee
Ġcompetit ion
Ġmus cle
Ġprop erly
Ġwis hing
ĠBet sy
Ġvent ured
ĠSn uggles
ol ine
Ġout fit
Ġch at
k y
Ġb ak
Ġran ger
Ġdeser ve
Ġgear s
Ġsal ty
Ġhow ever
ĠZ iggy
Ġdance s
rr r
am b
se qu
Ġblock ing
Ġpen s
t le
Ġmatter s
Ġchef s
Ġdark ness
it ely
Ġcon sequ
ust ed
Ġv ines
Ġcobweb s
Ġruin ing
Ġrain y
Ġsc ur
Ġfa b
st y
Ġbur st
Ġfab ric
Ġavoc ados
ĠF u
Ġbase ment
ĠBug gy
Ġent ire
Ġperform ed
Ġle ast
ab el
S n
Ġscrat ches
Ġheav ier
r ink
Ġtwir ling
ĠC laire
ĠJen na
Ġmin ts
Ġscur ried
Ġlo sing
T weet
How ever
Ġcl ick
ĠL inda
Ġsword s
ĠL uke
f l
Ġfl ames
Ġsn at
Ġsunf lowers
Ġnecklace s
ĠL aser
ag ic
J erry
Ġrain co
Ġrelie f
Ġtrick y
Ġrot ting
Ġjob s
L isten
Ġsew ed
Ġsil ent
Fo llow
Ġlight er
l en
ĠL ena
Ġex ha
ĠP r
ĠGr umpy
Ġconsequ ences
Ġst ain
Ġbow s
Ġsolut ion
A lex
oph ia
Ġunp acked
Ġp ins
Ġwrap s
ĠSk ip
Be ep
Ġpart ic
Ġtire s
r ance
Ġbump s
A b
Ġdecor ating
Ġw ow
Ġrace s
Ġb acked
Ġdent ist
Ġaccompl ish
Ġann oy
Ġpur r
c her
ais ies
Ġlif ting
Ġneed les
Ġcautious ly
Ġgrowl s
Ġhesit ated
ep t
ĠTh ose
izz ie
o ke
Ġbo dies
Ġd aisies
Ġtriang les
Ġcrack ers
Ġg ri
Ġc ott
ĠF ido
Ġm ater
Ġgra bbing
Ġfig ured
Ġbuy ing
Ġgrow s
Ġmater ial
ĠA dam
Ġstom ped
Ġ ĊĠ
ĠJ essie
Ġsweet s
ĠT ree
ĠGood bye
ver s
Ġcheek s
Ġflav or
Ġt ies
ĠR olly
B ig
Ġbak ery
Ġgroup s
Ġswan s
Ġfore head
Ġfa ct
b ly
v room
ell e
Ġown ers
Ġre pa
Ġinterest ed
Ġsuffer ing
L illy
H arry
ĠC athy
ĠN ana
ĠNot hing
Ġthu d
ĠE l
it ches
Ġlung s
Ġchuck led
Ġf reed
R u
? '
Ġcon n
ĠM ilo
F or
Ġtwink ling
Ġexha usted
Ġsw ept
ro sty
Ġdar ling
Ġwor ries
Ġfe ast
Ġtunnel s
Ġt apped
T w
le ts
Ġactiv ities
Ġrepa ired
Ġne ct
Ġnect ar
ind r
Ġun s
ĠTr ust
Ġre ason
ĠB all
ĠM ad
Ġcomplet ely
Ġent rance
ĠCo pper
Ġma iled
Ġpec ked
b and
Ġs ense
Ġcudd ly
Ġfu zzy
Ġnest s
ĠT ry
Ġpartic ular
st ep
ĠL isten
ct ions
Ġra indr
Ġwait er
Ġpl enty
Ġme als
Ġpee king
ĠH annah
Ġle ap
Ġ Q
Ġcolor ed
n o
Ġslam med
Ġplay ers
ĠB irthday
ark y
Ġmon th
Ġhand ful
ĠC ara
Ġforget s
Ġfeed ing
Ġd en
Ġsc ra
Ġbu dge
Ġpassport s
o ssible
ĠOl iver
igg ie
Ġst ool
ĠP up
Ġm er
ĠSu zie
le phant
Ġgen ie
Ġbath s
Ġtalk s
Ġimp ossible
ue en
Ġdeterm ination
ĠChr ist
M ay
Ġfilm s
Ġspike s
a a
Ġprin ting
Ġdesign ed
Ġo pp
Ġcount s
Ġbar s
Ġbu ses
Ġspread ing
Ġhon ked
bo at
Ġste er
Ġsto len
ĠSn ap
W hee
Ġwip ing
Ġsepar ated
Ġsuit case
et ty
Ġl amb
bl ings
ĠR ain
Ġsi blings
Ġch op
Ġcow b
n ies
ĠTw inkle
Ġsew ing
Ġch anging
Ġfe ver
Ġli qu
Ġcelebr ation
Ġbeh avi
ĠPe anut
Ġfire s
Ġhop s
Ġt y
Ġcamp ing
Ġback ward
Ġtwink le
S unny
Ġl ower
ret ch
le e
Ġsnat ched
h o
ĠBl oom
Ġdoll house
y es
b ut
ĠM ira
it ched
Ġag e
Ġsqueal ed
ĠJ acob
Ġc ash
m as
Ġcelebr ating
Ġtw ice
Ġshr inking
Ġs way
ĠJess ica
ĠM el
ri ous
Ġac he
ĠG ina
Ġkitten s
Ġh us
R ose
Ġk ings
S andy
Ġshop s
Ġtouc hes
we ed
Ġavo id
c ope
au ra
Ġsp at
Ġpath s
Ġpan cakes
Ġstud ents
ĠF rosty
Ġdro pping
Ġcalm ed
air y
ĠR e
Ġunt ied
r ig
ile s
Ġstro ked
P ipp
M illie
ĠH old
h og
ĠJ on
Ġtwist ing
ck y
Ġliqu id
Ġr otten
c l
Ġsome body
ive s
ll en
Ġsea weed
ĠN ina
h i
Ġsqu ish
Ġplay house
Ġast ron
n e
Ġbrace lets
Ġwake s
Ġscrew s
ig ning
Ġpupp ies
Ġastron aut
Ġloop s
ĠW oof
ĠO ther
L uckily
Ġplan ning
are n
Ġtr amp
Ġthr own
Ġa imed
Ġpl ain
im mer
am my
Ġsk unk
Ġwra pping
Ġfiref ly
Ġdanc ers
Ġsh oo
Ġspark s
Ġpen nies
Ġc ust
Ġpo ster
Ġreward ed
Ġlift s
Ġhus band
D an
âĢ Ķ
p en
Ġrefle ction
Ġdire ctions
Ġobject s
T ake
end y
us ing
Ġincre ased
y an
ĠY esterday
ĠChrist mas
u ppy
ri ver
Ġcl ues
ĠâĢ ĺ
Ġlead s
Ġr ising
Ġcust om
ĠWith out
Ġcous in
ing o
Ġdo d
ĠRo llie
Ġbl ocked
Ġtramp oline
Ġforget ting
K ate
u de
Ġa ff
rig ued
Ġbegin ning
Ġpout ed
Ġstore keeper
J ump
Ġcountry side
Ġhedge hog
Ġmes mer
Ġborrow ed
Ġinstr um
ĠQ ueen
j o
ie ce
ĠT ara
Ġfrown ing
ĠJ ay
y ond
Ġbe yond
Ġzebra s
ĠU p
Ġsnow fl
Ġvehic les
ĠK ayla
ĠB iggie
ĠM ic
P at
U nder
Ġwhisp ers
Ġfar t
iv ity
Ġdam age
Ġpres ses
Ġlay ing
Ġn ibb
Ġmark er
ĠRob o
Ġheal th
ĠOn ly
Ġfl apping
Ġswims uit
i very
Ġwarm er
Ġregret ted
ad es
Ġrain s
Ġslip s
arm er
Ġgl ued
Ġtipto ed
ĠE lephant
itt ed
Ġevery body
Ġy elp
Z ip
Ġcush ions
ĠF ire
ĠJul ia
Ġcold er
iver sity
a el
Ġcre ations
ĠSpark y
Ġsa n
Ġsw ir
Ġhear ing
Ġrust y
O ut
Ġfin s
Ġshap ed
i am
ĠM oon
Ġstreet s
Ġfart hest
Ġsa le
Ġbell s
it i
Ġstrong est
Ġcreat ivity
an s
Ġfit s
Al ways
M illy
ang le
ibb it
Ġsan k
ĠMike y
Ġlend ing
Ġe arn
ee se
Ġinclu ding
ĠCh irp
Ġcash ier
Ġdoll ars
Ġwob bly
Ġsniff s
Ġsour ce
Ġsto pping
Ġspell s
Ġtremb led
ĠR ich
ĠL arry
Ġguest s
ter s
Ġsing le
Ġind eed
Ġrainco at
Ġrecommend ed
ĠSnow man
Ġend s
Ġaccomplish ment
im on
Ġhope ful
ĠMiss y
Ġbel ts
Ġsurpr ising
B ear
Ġsuff ered
Ġsupp orted
ich ael
Ġseas ons
Ġsp ins
ĠT ake
Ġg ross
Ġencou rag
t he
ĠE ls
e et
Ġslow ed
Qu ack
Ġforgi ving
Ġplan s
ill ed
id ing
ĠW oo
Ġart ist
st ick
Ġperform ance
Ġstand s
ch o
Ġvan illa
Ġraindr ops
ara c
ert ain
N ina
Ġflav ors
u ing
Ġturt les
Ġlabel s
ob ody
Ġrac coon
Ġdel ivery
il ity
Ġpour s
Ġbe am
B ill
ĠS w
u ess
Ġd ie
Ġg eese
Ġpop s
Ġt ying
Ġcorn ers
Ġrob ber
Ġrec ipe
V room
Ġgri p
Ġhall way
Ġm oo
Ġdraw n
Ġch arac
Ġwill ing
ĠI zzy
el ia
Ġwe pt
Ġwid ened
Ġdriver s
Ġque ens
it ude
M ine
ĠB ones
Ġimag ining
ĠS ophia
Ġsail boat
ĠP am
ĠSp irit
Ġad ult
Ġsecond s
Ġprep aring
Ġsend ing
Ġgro cer
Ġtalent ed
Ġas ide
Ġsoft er
Ġwater ing
L ulu
ll ing
ĠFu zzy
umm ies
Ġc oop
Ġt ipped
Ġuns ure
Ġsail ors
Ġdeliver ing
Ġnot es
Ġtree house
ĠC indy
Ġknot s
Ġhor iz
C o
ĠBe aky
ig ers
Ġe cho
ĠSt ella
ĠL izzie
Ġfigure s
Ġangel s
Ġple asure
E llie
Ġhoriz on
Ġsque ak
Cl ara
Ġachie ved
ĠRob ert
Ġcurious ly
Ġblin king
Ġy um
Ġhot ter
Ġtw eet
ĠRu dy
Ġt iss
Ġpupil s
umb ling
Ġback wards
ĠSt retch
Ġbur row
ĠJ une
al ph
Ġpige ons
Ġt ummies
Ġsymbol s
Ġband ages
Ġd et
Ġpass en
Ġrobot s
Ġtoss ed
u zz
Ġh our
w k
B aby
o ey
ĠCra b
Ġr ather
Ġc oup
c ited
ĠT iti
ipp er
Ġro ars
Do lly
at ur
ĠDo ctor
V ery
Ġmer ma
ĠP lay
Ġgrocer ies
Mar ia
P ut
Ġun w
Ġ icing
Ġam ong
Ġbl own
Ġr umble
ight ing
Ġzipp ing
Ġafter wards
!âĢĿ .
Ru by
p rin
ĠT ia
Ġshovel s
ĠT urt
Ġscrew d
Ġm erry
Ġover come
us hing
ĠTo ot
Ġd ip
Ġsurf board
Ġg lee
Ġpr ove
Ġsp ed
Qu ick
Ġfirefight ers
ed s
Ġhead ing
S u
Ġwob ble
ĠA bbie
Ġrever sed
J ul
Ġsw all
Ġswall owed
Ġslice s
Ġm ate
Ġfl ipped
Ġsquee zing
Ġsc ored
Ġdisturb ing
ust y
ĠJ ump
S ad
aw n
ĠE x
M oo
Fr ank
Ġwa king
Ġch ip
Ġm aker
L ike
B etty
Ġint rigued
at y
Ġa ud
Ġp uff
Ġencourag ing
ĠB arky
Ġsquish y
os en
Ġch osen
Ġha wk
on ies
Ġslipp ing
he w
ĠF armer
ĠA ng
ile y
Ġdesign s
Ġmark ers
Ġgarden er
ĠS l
Ġscrewd river
Ġfrown s
Ġt igers
Ġcent er
ĠSad ly
Ġcoup le
Ġresp ond
pec ting
Ġflutter ed
ĠR on
Ġriver s
R ibbit
Ġbr u
b ird
ĠEm my
Ġsec ure
Ġignor ing
as hes
oun ce
Ġtight er
Ġjar s
ĠR yan
Ġshark s
Ġsprink led
Ġtiss ue
Ġfirefight er
Ġsuit s
Ġgigg les
f ly
Ġcream y
Ġfirm ly
ĠK it
Sp ike
Ġsh own
Ġfamil iar
C ar
ĠL aura
Ġthorn s
ĠW o
ĠZ ee
Ġde f
ĠN ick
Ġperform ing
Ġc or
Ġaud ience
Ġcolour ed
Ġcross ing
G et
Ġd aring
Ġexp ress
Ġto dd
Ġdraw ers
ment s
Ġcloud y
Ġgrace fully
Ġa is
ch ild
Z oomy
Ġyield ed
r at
Ġpedal ed
a e
ĠP atch
Ġhaircut s
Ġmix ture
Ġdis ob
bb led
Ġt il
Ġp onies
Ġe v
g gy
Ġbit s
f all
Ġcrown s
Ġnervous ly
Ġmind ed
Ġ 2
Ġstro ke
Ġpay s
B ang
ĠS leep
Ġres pected
Ġhang ers
Ġn apped
ĠTurt le
dd ie
a ven
Ġtest ed
ad ing
B essie
Ġpe ck
B oys
ab ly
K im
Ġsurf ing
ĠN ear
Ġsail s
p arent
Ġbee h
ĠUn iversity
ĠChr is
Ġsh ady
ĠTweet ie
Ġenthusia sm
Ġwis ely
Ġmagic ian
Ġneighb ours
Ġst itches
arl ings
Ġd arlings
Ġremind s
Ġweek end
ver ed
f ted
Ġsurround ings
D ear
ar row
ion a
Fred dy
Ġfle as
Ġtemp er
Ġthought s
Ġspit s
Ġsport s
or ing
Ġscoot ers
ĠAl ong
Ġpaint brush
K atie
ant ha
ll e
Ġfl ip
Ġfill s
Ġel bow
th a
Ġteam s
Ġlesson s
Ġli es
G uess
Ġam ount
Ġmel ons
Ġexpl o
Ġclean er
Ġpan icked
Ġmerma id
Ġs ill
Ġgrand child
Pipp in
ĠF ighting
c used
Ġl ent
ra c
on i
Ġlong est
Ġforgi ven
Al right
Ġbeeh ive
Ġhoop s
Ġoy sters
Ġbel oved
immer ing
it a
Ġgrand parent
ong rat
ongrat ul
og a
Ġmagaz ines
Ġrepe ating
Ġc rew
Ġar r
ĠThank s
ĠW ise
K eep
Ġla ce
Ġdiscuss ed
Ġbat hing
Ġsweet est
ĠGr anny
ĠH olly
Ġwa dd
Ġre ass
ĠMay a
Ġtub es
Ġe lf
Ġspr ang
ĠW illy
Ġspoon ful
step s
Ġnightmare s
A m
Ġgu ide
rom ise
ĠZ oey
ast y
Ġunderstand s
Ġman ners
Ġswe ep
ĠY et
Ġwr ink
Ġb ully
Ġbreat hed
Ġn ur
ent ly
J azz
Un cle
Ġn ood
on na
Ġne are
ĠB ally
c row
Ġfoot steps
wh ile
Ġsol ving
Ġgrass y
ĠSpark le
Ġc oug
Ġbulb s
an cy
Ġspeed ing
After wards
Ġtest ing
Ġsp ies
Ġlick ing
Ġwigg ly
ce pt
nt il
ild a
Ġpol ar
? !"
oun ced
Ġfo cused
Ġsheet s
Ġjoin ing
Ġmesmer ized
Ġhesit ant
Ġbra ver
ĠR oo
Ġm ast
ĠP uppy
e en
es pite
Ġr ushing
Ġgreet ed
ĠW ell
Ġship s
Ġscatter ing
Ġch anges
ĠN obody
Wh ich
Ġan ger
Ġcam el
Ġn uzz
ĠMar tha
Ġmaterial s
Ġpeace fully
K iki
und red
Ġsp ice
ĠSh ow
Le ave
Ġstor ed
ĠL enny
Ġwor n
Ġspill s
Ġg onna
Ġev il
Ġpol itely
Ġterri fied
Ġbicy cles
ĠBu bb
Ġdon key
E ven
ĠMix y
Sn ow
Ġheal ing
Ġm iles
ĠS oft
Ġaeropl anes
Ġare n
Ġbury ing
Ġkn ives
pp ies
Ġd ump
Ġscare crow
ĠN ice
c a
Ġse als
P enny
Ġworry ing
D avid
f reeze
z oom
ĠChew y
Ġlo ses
be ep
am boo
B ee
Ġst acked
Ġpuzz led
dd ing
Ġtrave lled
Ġgaz ing
Ġu nd
Ġ1 0
H urry
ĠO kay
Ġbl ast
Ġtast ing
Ġbasket s
re y
er m
Ġdri pping
Ġso aking
ĠW in
ĠK ip
ip es
Ġrat s
Ġcl ue
Ġtemper ature
Ġpinch ing
re ct
ĠChe ss
ĠIs n
Ġbelie ving
Ġhuman s
Ġfor ce
ĠT ess
Ġban ged
Ġpunish ment
Ġswim mer
an while
Ġsand y
ĠAb i
Ġtodd ler
B inky
of ia
Ġg est
is c
Ġcras hing
ĠS imon
Ġh undred
Ġbackpack s
ĠP h
ĠA na
Ġrelax ing
Ġbeep ed
Ġjo ins
ĠL ia
ĠW endy
f orm
Ġsnowfl akes
Ġ Ċ
Ġres isted
el ie
Ġquarrel ed
ĠT e
Ġfl ight
year s
Ġdelay ed
ĠF airy
ĠC ow
ĠL uckily
Ġdress ing
Ġpot ion
Ġr amp
Ġencourage ment
B ow
or ter
B y
' ."
Ġpurp ose
Ġcor rect
Ġtow ard
Ġcover ing
- -
Ġm aster
Ġfo cus
Ġtwink led
ab by
O pen
Ġscra ped
Tw o
Ġben ches
Ġlangu ages
Ġmonth s
ĠJo jo
is ions
S pe
Ġperm itted
ĠJu dy
Ġwound s
Ġrisk s
Ġb amboo
Ġcream s
ri er
Ġlip stick
Ġannoy ed
Ġfreed om
Ġf aded
Ġord ers
Ġpo ppies
T ony
Ġad ults
Ġche ers
Ġunw ra
Bu zzy
sh m
K ids
Ġsniff ing
op es
Ġbird house
Ġnood les
shm allow
Bird y
Ġcell s
Ġno dding
Ġfl own
ĠMar ie
Ġflo ats
ĠHer b
Ġte aring
Ġopin ions
ĠM int
In stead
Ġp uck
Ġsc en
Ġhands ome
ec ca
Ġsmell ing
Ġdri fted
id er
Ġple aded
and as
Ġsl ither
ĠS ay
Ġwith in
Ġ 5
Ġhe ight
Ġsnee zes
Ġbother ing
b age
Ġinstrum ents
Ġdam aged
Ġe ase
ĠSt e
Ġbur nt
Ġsc ient
Ġwas ting
Good night
Ġres ults
B ack
Ġp ound
Ġbrus hing
Ġscient ist
Ġg erm
d a
Ġhand ing
Ġsweat y
Ġdream t
Ġdestro ying
P andy
Ġtal ents
Ġcharac ters
Ġsell er
ĠJan ie
ĠAl i
b ell
M ira
Ġexplain s
ĠR azor
Ġc ertain
ĠM abel
Ġhis s
Be hind
C arl
Ġon ward
ĠP en
ous y
it ion
T ry
ĠC r
u el
Ġfile s
Ġbrave st
un ched
Ġdec isions
Ġsn uck
Ġstern ly
ĠH ug
Ġsw itched
u rious
Ġapolog ised
Ġbus iness
Ġstom p
Ġeng ines
Ġt uck
Ġsque aked
Ġremind ing
in ny
prin ts
Ġpost man
Ġb itten
ĠPo or
Ġmind s
c ake
Ġbehavi or
ĠRob bie
Ġscare s
Ġmosquito es
u nder
ĠJu dge
Ġman ag
Ġpeel ed
atter ed
as hing
Ġpur rs
bb ers
Ġplant ing
Ġdes per
ĠEvery body
Ġneat ly
Ġtil ted
Ġsing ers
Ġsm ashed
Ġs y
Ġdisplay ed
uff in
Ġin sp
ĠU ntil
ĠB ra
Ġrust ling
Ġy umm
Ġtreat ed
Ġbell ies
a ver
Ġmate y
Ġh oo
ĠB ess
Ġyelp ed
ĠN avy
Ġzoom s
Ġshin es
Ġcomb ed
Ġsc amp
Ġmar shmallow
Ġfa iled
Ġgrandparent s
Ġcolor ing
Ġcra cks
r up
Ġbreat hing
ĠSh adow
ul p
Ġn asty
l ine
ig hing
ĠM ake
c c
Ġdes pite
Ġwater fall
ĠY oga
om p
ĠAng el
Ġp andas
Ġwid er
Ġadd ress
T illy
Ġant ic
ĠFish y
f ather
Ġdoor way
A unt
Ġed ges
P lay
Ġsweat ers
Ġro bbers
ĠMe g
Ġin j
w ise
Ġecho ed
Ab igail
Ġdisob ey
L iz
ĠM ichael
ĠTo dd
Ġgo bbled
e vin
Ġtap ed
Ġg ap
Ġact ion
ĠL oop
or king
Ġback s
Ġsw ap
ĠFl ick
Ġflap s
W ake
Ġscold s
Ġo cc
L ena
Ġt ar
Ġstud ent
Ġmagn if
ĠE ddie
os cope
S low
Ġpl ucked
Ġprob ably
Ġse ver
ĠBl inky
Ġ ouch
Ġenc ount
m ies
Ġnewsp apers
Ġconn ected
Ġwar ri
Ġg oo
R os
Ġshin ier
R ock
Ġcrawl s
Ġsever al
ĠG ary
ĠS e
t ock
Ġwhist les
Ġst eth
Ġrow s
i el
Ġpl ot
ĠM indy
Ġsqu aw
Sh rink
Ġcare s
A dam
Ġm ood
Ġquiet er
St eve
Ġser ving
ĠSh are
ig ger
Ġgest ure
ĠN ut
T ed
Ġdoor bell
Ġsimp ly
v ant
f ire
F l
ĠTim e
Ġsp y
Ġresc uing
Ġsw o
Ġsh orter
T oo
Ġswo llen
Ġcott age
Ġastronaut s
M agic
Z ara
Ġbother ed
Ġgrand son
Ġsnap s
Ġaccident s
Ġtrust ing
Ġunpack ing
ĠPr ince
ab elle
Ġpray ers
ĠM ousy
f ound
ĠD ina
an ie
Ġdress er
ib i
M ad
Ġca using
Ġsteth oscope
H annah
ret ty
ĠZ ippy
Ġs ou
Ġthrough out
Th omas
Ġpill s
Ġjoy ful
Ġrun ner
O live
Ġprop er
m ates
ain t
wh at
Ġleap t
M at
ĠC ro
J amie
Ġm unch
Ġlo cks
ĠT oys
ĠW ait
Ġlow ered
ĠJack ie
re st
Ġcon s
Ġfl ips
Ġtar get
ĠB ang
ĠK aren
art led
Ġin ches
Ġgoat s
Ġwadd led
Ġexplore r
Ġste pping
Ġteacher s
Ġde ars
R ed
ear s
ĠR uff
Ġenvel opes
Ġantic ip
Ġknock ing
ĠR alph
en ing
ĠRe ady
Ġcowb oy
Ġeffort s
Ġch ar
ĠT ri
Ġplay d
ĠV room
ĠB ad
iv i
ĠP l
Ġuniform s
N ice
un ity
Fin n
Ġaw are
Ġs ens
oo sh
ĠR ia
Ġfloor s
ĠJack y
Ġwh imp
Ġfoot prints
Some one
Ġgl itt
l ied
Ġla pt
Ġappreci ation
Ġnear ly
Ġdis c
ll as
ĠF iona
Ġcoll ap
Ġpl ug
Ġex cept
ĠDave y
Ġpri ck
Ġtr ot
Ġne cks
Ġstamp ed
Ġch arge
Ġche cks
Ġflutter ing
r ily
om b
or der
Ġstat ues
Ġumbre llas
ac y
Ġshr ank
Ġsandcast les
.' "
H oppy
Ġfin ishing
ail s
ĠH oney
Ġhunt ers
r ons
Ġstro ll
Ġdod ged
Ġbounce s
Ġadd s
Ġwe eds
Ġset s
Ġgerm s
Ġchocol ates
ĠAm elia
Ġais le
iss a
Ġwr igg
Ġap rons
Ġscratch ing
Ġpassen gers
Ġdemand ing
isc uit
ĠSad ie
Ġbec omes
