{"!": 0, "\"": 1, "#": 2, "$": 3, "%": 4, "&": 5, "'": 6, "(": 7, ")": 8, "*": 9, "+": 10, ",": 11, "-": 12, ".": 13, "/": 14, "0": 15, "1": 16, "2": 17, "3": 18, "4": 19, "5": 20, "6": 21, "7": 22, "8": 23, "9": 24, ":": 25, ";": 26, "<": 27, "=": 28, ">": 29, "?": 30, "@": 31, "A": 32, "B": 33, "C": 34, "D": 35, "E": 36, "F": 37, "G": 38, "H": 39, "I": 40, "J": 41, "K": 42, "L": 43, "M": 44, "N": 45, "O": 46, "P": 47, "Q": 48, "R": 49, "S": 50, "T": 51, "U": 52, "V": 53, "W": 54, "X": 55, "Y": 56, "Z": 57, "[": 58, "\\": 59, "]": 60, "^": 61, "_": 62, "`": 63, "a": 64, "b": 65, "c": 66, "d": 67, "e": 68, "f": 69, "g": 70, "h": 71, "i": 72, "j": 73, "k": 74, "l": 75, "m": 76, "n": 77, "o": 78, "p": 79, "q": 80, "r": 81, "s": 82, "t": 83, "u": 84, "v": 85, "w": 86, "x": 87, "y": 88, "z": 89, "{": 90, "|": 91, "}": 92, "~": 93, "¡": 94, "¢": 95, "£": 96, "¤": 97, "¥": 98, "¦": 99, "§": 100, "¨": 101, "©": 102, "ª": 103, "«": 104, "¬": 105, "®": 106, "¯": 107, "°": 108, "±": 109, "²": 110, "³": 111, "´": 112, "µ": 113, "¶": 114, "·": 115, "¸": 116, "¹": 117, "º": 118, "»": 119, "¼": 120, "½": 121, "¾": 122, "¿": 123, "À": 124, "Á": 125, "Â": 126, "Ã": 127, "Ä": 128, "Å": 129, "Æ": 130, "Ç": 131, "È": 132, "É": 133, "Ê": 134, "Ë": 135, "Ì": 136, "Í": 137, "Î": 138, "Ï": 139, "Ð": 140, "Ñ": 141, "Ò": 142, "Ó": 143, "Ô": 144, "Õ": 145, "Ö": 146, "×": 147, "Ø": 148, "Ù": 149, "Ú": 150, "Û": 151, "Ü": 152, "Ý": 153, "Þ": 154, "ß": 155, "à": 156, "á": 157, "â": 158, "ã": 159, "ä": 160, "å": 161, "æ": 162, "ç": 163, "è": 164, "é": 165, "ê": 166, "ë": 167, "ì": 168, "í": 169, "î": 170, "ï": 171, "ð": 172, "ñ": 173, "ò": 174, "ó": 175, "ô": 176, "õ": 177, "ö": 178, "÷": 179, "ø": 180, "ù": 181, "ú": 182, "û": 183, "ü": 184, "ý": 185, "þ": 186, "ÿ": 187, "Ā": 188, "ā": 189, "Ă": 190, "ă": 191, "Ą": 192, "ą": 193, "Ć": 194, "ć": 195, "Ĉ": 196, "ĉ": 197, "Ċ": 198, "ċ": 199, "Č": 200, "č": 201, "Ď": 202, "ď": 203, "Đ": 204, "đ": 205, "Ē": 206, "ē": 207, "Ĕ": 208, "ĕ": 209, "Ė": 210, "ė": 211, "Ę": 212, "ę": 213, "Ě": 214, "ě": 215, "Ĝ": 216, "ĝ": 217, "Ğ": 218, "ğ": 219, "Ġ": 220, "ġ": 221, "Ģ": 222, "ģ": 223, "Ĥ": 224, "ĥ": 225, "Ħ": 226, "ħ": 227, "Ĩ": 228, "ĩ": 229, "Ī": 230, "ī": 231, "Ĭ": 232, "ĭ": 233, "Į": 234, "į": 235, "İ": 236, "ı": 237, "Ĳ": 238, "ĳ": 239, "Ĵ": 240, "ĵ": 241, "Ķ": 242, "ķ": 243, "ĸ": 244, "Ĺ": 245, "ĺ": 246, "Ļ": 247, "ļ": 248, "Ľ": 249, "ľ": 250, "Ŀ": 251, "ŀ": 252, "Ł": 253, "ł": 254, "Ń": 255, "<|endoftext|>": 256, "Ġt": 257, "he": 258, "Ġa": 259, "Ġs": 260, "nd": 261, "Ġw": 262, "Ġthe": 263, "ed": 264, "Ġb": 265, "Ġto": 266, "Ġand": 267, "Ġh": 268, "Ġf": 269, "ĠT": 270, "in": 271, "Ġwa": 272, "re": 273, "it": 274, "ou": 275, "Ġl": 276, "Ġd": 277, "Ġc": 278, "Ġp": 279, "ay": 280, "Ġm": 281, "er": 282, "Ġwas": 283, "om": 284, "ĠThe": 285, "Ġhe": 286, "is": 287, "Ġn": 288, "ar": 289, "im": 290, "on": 291, "Ġsa": 292, "id": 293, "ll": 294, "Ġha": 295, "Ġg": 296, "at": 297, "ĠS": 298, "ing": 299, "ot": 300, "en": 301, "an": 302, "le": 303, "or": 304, "end": 305, "ir": 306, "of": 307, "am": 308, "et": 309, "ĠH": 310, "Ġit": 311, "Ġth": 312, "ig": 313, "ĠThey": 314, "Ġin": 315, "il": 316, "Ġpl": 317, "ĠHe": 318, "Ġ\"": 319, "ow": 320, "ver": 321, "ri": 322, "ut": 323, "Ġbe": 324, "Ġu": 325, "Ġsaid": 326, "Ġplay": 327, "ith": 328, "Ġday": 329, "Ġwith": 330, "pp": 331, "On": 332, "Ġy": 333, "oo": 334, "ked": 335, "Ġr": 336, "ex": 337, "Ġher": 338, "ce": 339, "ĠI": 340, "ĠShe": 341, "ld": 342, "ĠTim": 343, "Ġhis": 344, "Ġst": 345, "ke": 346, "Ġbig": 347, "nt": 348, "ck": 349, "Ġyou": 350, "very": 351, "st": 352, "ve": 353, "Ġon": 354, "un": 355, "Ġhapp": 356, "riend": 357, "Ġfriend": 358, "all": 359, "ily": 360, "ext": 361, "ĠL": 362, "Ġthey": 363, "oft": 364, "Ġwe": 365, "Ġhad": 366, "Ġnot": 367, "Ġli": 368, "Ġup": 369, "her": 370, "Ġwant": 371, "Ġof": 372, "ad": 373, "itt": 374, "<|": 375, "|>": 376, "endoft": 377, "endoftext": 378, "se": 379, "ĠB": 380, "Ġdo": 381, "Ġe": 382, "Ġhappy": 383, "ent": 384, "Ġvery": 385, "ĠM": 386, "es": 387, "Ġthat": 388, "Ġsaw": 389, "One": 390, "'s": 391, "ould": 392, "Ġmom": 393, "Ġfor": 394, "Ġsh": 395, "ittle": 396, "Ġlittle": 397, "Ġshe": 398, "ch": 399, "ime": 400, "Ġnam": 401, ".\"": 402, "Ġtime": 403, "Ġk": 404, "ound": 405, "Ġso": 406, "Ġthere": 407, "Ġnamed": 408, "Ġsm": 409, "Ġbo": 410, "Ġwere": 411, "ĠLily": 412, "Ġne": 413, "Ġwanted": 414, "Ġbut": 415, "out": 416, "The": 417, "Ġfriends": 418, "ved": 419, "!\"": 420, "ht": 421, "ĠTom": 422, "ird": 423, "el": 424, "Ġbird": 425, "al": 426, "Ġan": 427, "ake": 428, "Ġtoo": 429, "ome": 430, "ĠIt": 431, "ug": 432, "ide": 433, "Ġwent": 434, "Ġwh": 435, "Ġhel": 436, "Once": 437, "Ġis": 438, "Ġall": 439, "Ġhelp": 440, "ue": 441, "Ġloo": 442, "Ġlo": 443, "ter": 444, "ĠA": 445, "Ġupon": 446, "ry": 447, "ore": 448, "ind": 449, "Ġfun": 450, "Ġtoy": 451, "get": 452, "ill": 453, "ame": 454, "Ġas": 455, "Ġat": 456, "ra": 457, "Ġj": 458, "Ġdid": 459, "gether": 460, "Ġre": 461, "ur": 462, "Ġo": 463, "Ġse": 464, "Ġtogether": 465, "ack": 466, "Ġcat": 467, "ly": 468, "Ġtre": 469, "ood": 470, "ted": 471, "ic": 472, "Ġdog": 473, "Ġcould": 474, "Ġcan": 475, "Ġtheir": 476, "ec": 477, "ard": 478, "ark": 479, "Ġgir": 480, "Ġplayed": 481, "Ġhim": 482, "Ġball": 483, "?\"": 484, "Ġgirl": 485, "Ġro": 486, "way": 487, "Ġgo": 488, "hed": 489, "my": 490, "Ġare": 491, "Ġout": 492, "Ġle": 493, "Ġfr": 494, "ain": 495, "Ġkn": 496, "hen": 497, "Ġthem": 498, "um": 499, "'t": 500, "ax": 501, "Ġsad": 502, "ul": 503, "Ġboy": 504, "Ġtree": 505, "other": 506, "Ġhave": 507, "Ġman": 508, "Ġcl": 509, "Ġloved": 510, "Ġlooked": 511, "oug": 512, "Ġfound": 513, "Ġsp": 514, "Ġstar": 515, "ĠSue": 516, "one": 517, "hing": 518, "Ġsc": 519, "Ġback": 520, "own": 521, "ĠMax": 522, "are": 523, "Ġlike": 524, "ful": 525, "side": 526, "Ġme": 527, "Ġbec": 528, "Ġpark": 529, "ight": 530, "ong": 531, "Ġcar": 532, "op": 533, "elt": 534, "ĠOne": 535, "Ġliked": 536, "Ġwould": 537, "Ġmake": 538, "round": 539, "Ġla": 540, "Ġfa": 541, "Ġfelt": 542, "You": 543, "ĠW": 544, "ell": 545, "Ġsee": 546, "ĠBut": 547, "omet": 548, "Ġasked": 549, "ag": 550, "Ġnew": 551, "Ġno": 552, "ice": 553, "ĠSam": 554, "ouse": 555, "Ġstarted": 556, "ared": 557, "Ġcame": 558, "ĠBen": 559, "Ġal": 560, "Ġother": 561, "ought": 562, "iled": 563, "Ġsomet": 564, "Ġag": 565, "Ġgood": 566, "Ġsmall": 567, "ss": 568, "Ġbr": 569, "Ġsmiled": 570, "Ġsay": 571, "ried": 572, "ade": 573, "ings": 574, "ob": 575, "pot": 576, "Ġwor": 577, "Ġfind": 578, "ia": 579, "Ġaway": 580, "ty": 581, "Ġput": 582, "Ġex": 583, "Ġwhat": 584, "Ġsomething": 585, "Ġfrom": 586, "Ġmade": 587, "Ġthought": 588, "ened": 589, "Ġhome": 590, "Ġplaying": 591, "Ġco": 592, "ook": 593, "Ġevery": 594, "Ġwal": 595, "Ġmu": 596, "uc": 597, "ach": 598, "arn": 599, "ĠSpot": 600, "Ġran": 601, "ile": 602, "ĠF": 603, "ie": 604, "ĠJ": 605, "ave": 606, "Ġagain": 607, "Ġsome": 608, "Ġlaug": 609, "dd": 610, "Ġhouse": 611, "Ġdown": 612, "Ġfl": 613, "king": 614, "Ġtook": 615, "Ġscared": 616, "Ġpr": 617, "ny": 618, "ure": 619, "Ġtoys": 620, "Ġlearn": 621, "if": 622, "ĠYou": 623, "Ġwill": 624, "Ġbox": 625, "ick": 626, "ret": 627, "ab": 628, "ep": 629, "Ġmy": 630, "Ġaround": 631, "Ġthings": 632, "Ġyour": 633, "oud": 634, "Ġbl": 635, "uck": 636, "Ġwhen": 637, "ish": 638, "Ġlived": 639, "Ġfe": 640, "Ġthen": 641, "Ġsun": 642, "as": 643, "Ġsw": 644, ",\"": 645, "Ġch": 646, "us": 647, "pped": 648, "Ġab": 649, "ĠMia": 650, "ank": 651, "Ġget": 652, "ucy": 653, "Tim": 654, "ump": 655, "Th": 656, "Ġlot": 657, "ist": 658, "oth": 659, "Ġtried": 660, "ap": 661, "Ġknow": 662, "Ġsays": 663, "Ġgot": 664, "ited": 665, "Ġwho": 666, "Ġkne": 667, "ust": 668, "Ġmany": 669, "nder": 670, "Ġint": 671, "Ġabout": 672, "Lily": 673, "Ġpret": 674, "Ġdec": 675, "Ġany": 676, "Ġred": 677, "ĠD": 678, "ive": 679, "Ġknew": 680, "ace": 681, "ous": 682, "Ġmore": 683, "ise": 684, "Ġv": 685, "Ġcare": 686, "ally": 687, "Ġpic": 688, "au": 689, "qu": 690, "Ġhug": 691, "ĠLucy": 692, "Ġlearned": 693, "Ġpo": 694, "Ġwater": 695, "fter": 696, "Ġbecame": 697, "Ġbest": 698, "ause": 699, "Ġop": 700, "Ġgre": 701, "Ġexc": 702, "ways": 703, "urp": 704, "âĢ": 705, "Ġoutside": 706, "Ġlaughed": 707, "Ġlook": 708, "Ġalways": 709, "Ġdecid": 710, "Ġshow": 711, "Ġun": 712, "ant": 713, "ĠBob": 714, "fe": 715, "Ġroom": 716, "Ġdecided": 717, "Ġho": 718, "Ġbecause": 719, "Ġinto": 720, "ĠSo": 721, "Ġeat": 722, "ite": 723, "Ġjump": 724, "ĠAnd": 725, "Ġpe": 726, "Ġboth": 727, "ers": 728, "ĠMom": 729, "Ġdad": 730, "They": 731, "udd": 732, "Ġke": 733, "Ġone": 734, "nn": 735, "Ġthis": 736, "Ġexcited": 737, "Ġfast": 738, "ĠE": 739, "Ġnice": 740, "Ġfeel": 741, "Tom": 742, "Yes": 743, "Ġrun": 744, "Ġlong": 745, "Ġtold": 746, "Ġsk": 747, "Ġam": 748, "urpr": 749, "our": 750, "Ġinside": 751, "ull": 752, "Ġtr": 753, "Ġsurpr": 754, "Ġmo": 755, "ink": 756, "Ġpretty": 757, "iny": 758, "Ġsor": 759, "Wh": 760, "Ġtake": 761, "og": 762, "Ġsl": 763, "Ġeach": 764, "Ġgave": 765, "Ġmuch": 766, "lew": 767, "Ġgra": 768, "nna": 769, "Ġrock": 770, "Ġhow": 771, "Ġstr": 772, "ara": 773, "imal": 774, "Ġanimal": 775, "ged": 776, "Ġneed": 777, "Ġthan": 778, "But": 779, "ven": 780, "etter": 781, "Ġtow": 782, "Ġor": 783, "ĠC": 784, "Ġunder": 785, "ess": 786, "Ġold": 787, "Ġsorry": 788, "ge": 789, "ised": 790, "ro": 791, "urt": 792, "Ġcle": 793, "Ġfish": 794, "Ġwalked": 795, "Ġclo": 796, "and": 797, "Ġbear": 798, "ase": 799, "ast": 800, "Ġhand": 801, "urn": 802, "ĠWe": 803, "Ġkind": 804, "ĠHis": 805, "here": 806, "Ġhappened": 807, "Ġjust": 808, "Ġflow": 809, "Ġfood": 810, "Ġlist": 811, "Ġte": 812, "Ġdidn": 813, "Ġanimals": 814, "Ġhig": 815, "pl": 816, "Ġwat": 817, "Ġnear": 818, "Ġide": 819, "Ġtry": 820, "ched": 821, "Ġsky": 822, "ine": 823, "Ġsn": 824, "ving": 825, "Ġfi": 826, "rom": 827, "Ġus": 828, "Ġidea": 829, "Ġbetter": 830, "ĠAmy": 831, "Ġbug": 832, "Ġheard": 833, "gry": 834, "Ġits": 835, "Ġtw": 836, "Ġlet": 837, "pec": 838, "ate": 839, "able": 840, "ff": 841, "Ġen": 842, "Ġcareful": 843, "Ġshare": 844, "Ġif": 845, "Thank": 846, "Mom": 847, "Ġfly": 848, "Ġstor": 849, "ial": 850, "Ġflew": 851, "more": 852, "Ġanymore": 853, "ĠTh": 854, "Ġspec": 855, "Ġspecial": 856, "ion": 857, "Ġcom": 858, "Ġlots": 859, "Ġnever": 860, "Ġby": 861, "lf": 862, "ream": 863, "Ġdan": 864, "Ġbu": 865, "Ġfo": 866, "Ġwind": 867, "Ġdon": 868, "Ġtal": 869, "Ġclean": 870, "ort": 871, "Ġgr": 872, "Ġlove": 873, "rm": 874, "ber": 875, "Ġend": 876, "ĠThen": 877, "ople": 878, "Ġeven": 879, "ĊĊ": 880, "Ġmag": 881, "Ġhard": 882, "Ġshiny": 883, "udden": 884, "Ġfore": 885, "Ġover": 886, "Ġcake": 887, "ak": 888, "Ġbook": 889, "Ġcol": 890, "Ġturn": 891, "Ġfam": 892, "Ġbad": 893, "Ġsafe": 894, "Ġafter": 895, "ady": 896, "ĠAnna": 897, "uddenly": 898, "Ġpeople": 899, "Ġproud": 900, "ĠEvery": 901, "Ġsurprised": 902, "pected": 903, "Let": 904, "Ġhigh": 905, "Ġcu": 906, "Ġhurt": 907, "Ġcome": 908, "imb": 909, "Ġdoor": 910, "arden": 911, "Ġgarden": 912, "Ġground": 913, "bb": 914, "Ġopened": 915, "Ġpicked": 916, "Ġloud": 917, "Ġclimb": 918, "expected": 919, "Ġunexpected": 920, "Ġgl": 921, "Ġche": 922, "ild": 923, "Ġim": 924, "As": 925, "Ġgive": 926, "Ġway": 927, "ail": 928, "'m": 929, "Ġthanked": 930, "Ġcolor": 931, "Ġblue": 932, "Ġstill": 933, "Ġever": 934, "Ġhugged": 935, "ĠFrom": 936, "Ġcall": 937, "Ġfar": 938, "ip": 939, "ĠHer": 940, "ĠSara": 941, "ĠWhen": 942, "No": 943, "Ġoff": 944, "Ġmagic": 945, "iz": 946, "ough": 947, "age": 948, "ummy": 949, "ĠK": 950, "Ġjumped": 951, "Ġshould": 952, "Ġpar": 953, "Ġfamily": 954, "ool": 955, "Ġkid": 956, "Ġsmile": 957, "hes": 958, "uff": 959, "Ġplace": 960, "kay": 961, "Ġwalk": 962, "Ġnow": 963, "ct": 964, "ĠIn": 965, "Ġgreat": 966, "Ġqu": 967, "Ġstrong": 968, "les": 969, "Ġstay": 970, "Ġunt": 971, "Ġsto": 972, "aut": 973, "Ġforest": 974, "ture": 975, "ane": 976, "em": 977, "Ġbra": 978, "ĠP": 979, "itty": 980, "Ġfrog": 981, "Ġbro": 982, "Ġuntil": 983, "oon": 984, "Ġbeaut": 985, "dy": 986, "Ġsqu": 987, "Ġstick": 988, "Ġboat": 989, "Ġnext": 990, "lease": 991, "ning": 992, "Ġhappily": 993, "Ġlisten": 994, "aking": 995, "Ġkids": 996, "Ġtra": 997, "ies": 998, "iful": 999, "Ġbeautiful": 1000, "Ġapp": 1001, "th": 1002, "Ġhelped": 1003, "Ġdra": 1004, "Ġshowed": 1005, "Ġclos": 1006, "be": 1007, "Ġimp": 1008, "unny": 1009, "Ġstory": 1010, "oy": 1011, "Ġwhile": 1012, "Ġtown": 1013, "rel": 1014, "pt": 1015, "Ġrain": 1016, "ress": 1017, "Ġpicture": 1018, "Ġbeing": 1019, "Ġrem": 1020, "Ġeveryone": 1021, "It": 1022, "ary": 1023, "Ġmor": 1024, "ree": 1025, "Ġhat": 1026, "Ġcalled": 1027, "Ġmet": 1028, "Ġstopped": 1029, "Ġad": 1030, "Ġgame": 1031, "Now": 1032, "He": 1033, "Ġwo": 1034, "Can": 1035, "ger": 1036, "Ġangry": 1037, "uffy": 1038, "Ġsoft": 1039, "Ġopen": 1040, "Ġtruck": 1041, "Ġkeep": 1042, "When": 1043, "Ġyummy": 1044, "Ġcry": 1045, "Ġlost": 1046, "Ġbed": 1047, "ĠLet": 1048, "ĠSally": 1049, "Ġwarm": 1050, "by": 1051, "vent": 1052, "Ġbrave": 1053, "Ġmouse": 1054, "ĠWh": 1055, "Ġate": 1056, "ĠKitty": 1057, "ished": 1058, "Ġde": 1059, "fore": 1060, "Ġdoll": 1061, "Ġcouldn": 1062, "Ġwatch": 1063, "so": 1064, "Ġleave": 1065, "dded": 1066, "Ġalso": 1067, "Ġfell": 1068, "Ġgreen": 1069, "Ġface": 1070, "Ġtwo": 1071, "gan": 1072, "iss": 1073, "Ġflowers": 1074, "bit": 1075, "What": 1076, "ĠR": 1077, "ble": 1078, "Ġnoise": 1079, "abbit": 1080, "irst": 1081, "owl": 1082, "Ġwhere": 1083, "az": 1084, "ock": 1085, "Ġsoon": 1086, "self": 1087, "Ġslide": 1088, "luffy": 1089, "Ġrabbit": 1090, "Ġhole": 1091, "Ġbefore": 1092, "Ġpus": 1093, "irrel": 1094, "ired": 1095, "illy": 1096, "Ġsat": 1097, "Ġhear": 1098, "Ġuse": 1099, "âĢĿ": 1100, "Hi": 1101, "Ġpa": 1102, "Ġkept": 1103, "âĢľ": 1104, "That": 1105, "Ġsquirrel": 1106, "ear": 1107, "Then": 1108, "Ġnodded": 1109, "ma": 1110, "Ġcook": 1111, "Ġexpl": 1112, "Ġstore": 1113, "Ġhands": 1114, "Look": 1115, "Ġbirds": 1116, "Ġpain": 1117, "Ġgoing": 1118, "Ġfunny": 1119, "Ġhaving": 1120, "day": 1121, "Ġsing": 1122, "aybe": 1123, "uch": 1124, "Ġey": 1125, "Ġcatch": 1126, "aug": 1127, "aught": 1128, "ĠFluffy": 1129, "ĠCan": 1130, "Ġyell": 1131, "uit": 1132, "Ġthink": 1133, "leep": 1134, "Ġcra": 1135, "Ġfin": 1136, "Ben": 1137, "Ġfix": 1138, "Ġbre": 1139, "Ġtired": 1140, "Ġbunny": 1141, "Ġused": 1142, "Ġlooking": 1143, "ange": 1144, "Ġbus": 1145, "air": 1146, "Ġwork": 1147, "Ġwr": 1148, "Ġour": 1149, "ting": 1150, "Ġpull": 1151, "We": 1152, "Ġthr": 1153, "ĠNow": 1154, "thing": 1155, "Ġwait": 1156, "Ġkit": 1157, "Ġsound": 1158, "Ġjo": 1159, "Ġhas": 1160, "Ġmean": 1161, "ĠG": 1162, "Ġpond": 1163, "ember": 1164, "Ġbeh": 1165, "Ġdr": 1166, "Ġsunny": 1167, "led": 1168, "Ġothers": 1169, "Ġask": 1170, "ng": 1171, "chen": 1172, "Ġkitchen": 1173, "Ġtalk": 1174, "Ġflo": 1175, "Ġdif": 1176, "ĠJo": 1177, "rew": 1178, "Ġpie": 1179, "Ġhead": 1180, "Ġreal": 1181, "Ġtri": 1182, "Ġfirst": 1183, "Ġmommy": 1184, "Ġeyes": 1185, "ello": 1186, "Ġfav": 1187, "Hello": 1188, "Ġimport": 1189, "ath": 1190, "joy": 1191, "Ġz": 1192, "Ġremember": 1193, "Ġright": 1194, "Ġflower": 1195, "Ġcon": 1196, "Ġmess": 1197, "Ġparty": 1198, "Ġcold": 1199, "ĠDo": 1200, "Ġswe": 1201, "Ġvo": 1202, "ious": 1203, "ft": 1204, "Ġsand": 1205, "ĠâĢľ": 1206, "ac": 1207, "orn": 1208, "Ġrace": 1209, "Ġcuri": 1210, "imes": 1211, "Ġimportant": 1212, "Ġduck": 1213, "Ġmoral": 1214, "Ġshared": 1215, "zy": 1216, "ount": 1217, "ĠJack": 1218, "Ġice": 1219, "Ġokay": 1220, "Ġadvent": 1221, "Ġworked": 1222, "llow": 1223, "At": 1224, "Ġenjoy": 1225, "Ġmaking": 1226, "Ġbright": 1227, "Ġdress": 1228, "Ġcurious": 1229, "Ġown": 1230, "Ġtall": 1231, "Ġdir": 1232, "Ġhop": 1233, "reed": 1234, "Ġhid": 1235, "Ġfavor": 1236, "hn": 1237, "Ġri": 1238, "Ġsleep": 1239, "Ġfavorite": 1240, "Ġdis": 1241, "Wow": 1242, "Ġbegan": 1243, "Ġthing": 1244, "Ġmon": 1245, "Ġbag": 1246, "Ġhill": 1247, "Don": 1248, "Ġcla": 1249, "Ġdraw": 1250, "Ġrest": 1251, "Ġhere": 1252, "Ġyard": 1253, "Ġtell": 1254, "ĠFin": 1255, "ster": 1256, "Ġwatched": 1257, "Ġfollow": 1258, "que": 1259, "Ġmove": 1260, "Ġbel": 1261, "ect": 1262, "Ġcut": 1263, "Ġnight": 1264, "Ġagreed": 1265, "Ġpick": 1266, "co": 1267, "Ġblock": 1268, "Ġhun": 1269, "aper": 1270, "lly": 1271, "Ġstop": 1272, "Ġbehind": 1273, "ĠThis": 1274, "ied": 1275, "Ġsurprise": 1276, "Ġsho": 1277, "Ġhot": 1278, "After": 1279, "Ġtable": 1280, "Ġgrass": 1281, "Ġworry": 1282, "Ġdark": 1283, "Ġtrees": 1284, "Ġvoice": 1285, "Ġwalking": 1286, "fere": 1287, "Ġfloor": 1288, "Ġtop": 1289, "Ġfarm": 1290, "Ġlion": 1291, "Ġdiffere": 1292, "Ġplease": 1293, "Ġru": 1294, "Ġsong": 1295, "Ġtail": 1296, "Ġbutter": 1297, "Ġsweet": 1298, "Max": 1299, "Ġshout": 1300, "Ġcolors": 1301, "Ġread": 1302, "Ġlady": 1303, "ĠDad": 1304, "Ġforg": 1305, "isy": 1306, "Ġleaves": 1307, "Ġcloser": 1308, "ign": 1309, "Ġcars": 1310, "Ġturned": 1311, "Ġneeded": 1312, "Ġtast": 1313, "aring": 1314, "Why": 1315, "Ġwood": 1316, "Ġcried": 1317, "Ġdifferent": 1318, "Ġdel": 1319, "Ġlaugh": 1320, "Ġpiece": 1321, "âĢĻ": 1322, "ered": 1323, "ĠMr": 1324, "Ġadventure": 1325, "Ġroll": 1326, "Ġdoes": 1327, "Ġfire": 1328, "Ġhungry": 1329, "ike": 1330, "Ġcr": 1331, "Ġhair": 1332, "ĠSuddenly": 1333, "Ġyellow": 1334, "Ġpaper": 1335, "Ġfeeling": 1336, "Ġfull": 1337, "Ġprin": 1338, "bo": 1339, "Sue": 1340, "Ġtouch": 1341, "ĠAs": 1342, "Anna": 1343, "Sam": 1344, "Ġwet": 1345, "Ġfriendly": 1346, "Ġper": 1347, "oom": 1348, "ken": 1349, "cked": 1350, "ached": 1351, "Ġswing": 1352, "Ġfruit": 1353, "ient": 1354, "Ġbroken": 1355, "Ġready": 1356, "bye": 1357, "Ġprom": 1358, "ppy": 1359, "ĠThat": 1360, "Ġanother": 1361, "Ġpretend": 1362, "Ġlight": 1363, "Ġdance": 1364, "ater": 1365, "Ġclimbed": 1366, "where": 1367, "Ġlistened": 1368, "Ġdanc": 1369, "ĠBobo": 1370, "Ġrunning": 1371, "Ġonly": 1372, "Ġplan": 1373, "Ġgone": 1374, "Ġswim": 1375, "bbed": 1376, "Suddenly": 1377, "sh": 1378, "Ġtrain": 1379, "ila": 1380, "ĠJane": 1381, "Sara": 1382, "ndma": 1383, "av": 1384, "Ġclose": 1385, "Ġsmell": 1386, "She": 1387, "aby": 1388, "Ġamaz": 1389, "So": 1390, "Ġhold": 1391, "Ġblocks": 1392, "ĠTimmy": 1393, "Ġwonder": 1394, "Ġrepl": 1395, "ĠAll": 1396, "Ġreached": 1397, "Ġsees": 1398, "Ġbutterf": 1399, "Ġwall": 1400, "oney": 1401, "Ġpu": 1402, "red": 1403, "Ġhelping": 1404, "Ġslow": 1405, "Ġdri": 1406, "Ġcream": 1407, "Ġcool": 1408, "af": 1409, "Ġglad": 1410, "Ġant": 1411, "Ġless": 1412, "Ġbeen": 1413, "Ġgoodbye": 1414, "Ġac": 1415, "Ġfight": 1416, "ather": 1417, "Ġpushed": 1418, "Mia": 1419, "iced": 1420, "Ġfair": 1421, "Ġmust": 1422, "Ġhide": 1423, "Ġmoment": 1424, "ĠO": 1425, "Ġwindow": 1426, "Ġsit": 1427, "Ġballoon": 1428, "Ġexplore": 1429, "Ġchild": 1430, "Ġsnow": 1431, "ĠEveryone": 1432, "Ġar": 1433, "Ġwished": 1434, "Ġste": 1435, "Ġdone": 1436, "Ġbaby": 1437, "Ġwag": 1438, "Ġstuck": 1439, "Ġbuy": 1440, "Ġperf": 1441, "Ġthank": 1442, "Ġmight": 1443, "icy": 1444, "Ġname": 1445, "Ġtrying": 1446, "ized": 1447, "Ġbit": 1448, "Ġcoming": 1449, "Ġbar": 1450, "Ġapple": 1451, "Ġquick": 1452, "Ġfall": 1453, "ash": 1454, "Ġscary": 1455, "Ġlooks": 1456, "Ġbuild": 1457, "Ġdoing": 1458, "Ġdin": 1459, "Ġdream": 1460, "Ġwin": 1461, "Ġunderst": 1462, "aisy": 1463, "Ġdirty": 1464, "Ġheld": 1465, "ames": 1466, "Ġbooks": 1467, "Ġmar": 1468, "In": 1469, "Ġleft": 1470, "Ġbutterfly": 1471, "Ġshouted": 1472, "Ġcount": 1473, "Ġreplied": 1474, "avy": 1475, "Ġreach": 1476, "Ġtiny": 1477, "Ġthrough": 1478, "ott": 1479, "Ġdro": 1480, "Ġwhy": 1481, "Ġair": 1482, "Ġbran": 1483, "Ġland": 1484, "key": 1485, "Ġthree": 1486, "Ġpulled": 1487, "Ġspl": 1488, "Ġtreat": 1489, "Ġgrow": 1490, "Ġwise": 1491, "Ġbrother": 1492, "Ġwoods": 1493, "Ġsure": 1494, "'re": 1495, "Ġchair": 1496, "ix": 1497, "Ġmat": 1498, "Ġseen": 1499, "ins": 1500, "Ġpink": 1501, "Ġowl": 1502, "Ġclapped": 1503, "Ġplant": 1504, "ely": 1505, "ield": 1506, "Ġcup": 1507, "Ġsometimes": 1508, "andy": 1509, "Ġfill": 1510, "Ġcloud": 1511, "ask": 1512, "Ġswam": 1513, "outh": 1514, "Ġjob": 1515, "Ġcolorful": 1516, "Ġremembered": 1517, "Ġnest": 1518, "Ġbigger": 1519, "pe": 1520, "Ġmouth": 1521, "Okay": 1522, "Ġjoin": 1523, "Ġlesson": 1524, "ph": 1525, "Ġcre": 1526, "oup": 1527, "ĠThere": 1528, "room": 1529, "art": 1530, "Ġwaved": 1531, "Ġgrabbed": 1532, "uddy": 1533, "Ġstayed": 1534, "Oh": 1535, "Ġpaint": 1536, "This": 1537, "Ġclot": 1538, "Ġcont": 1539, "Ġclothes": 1540, "ower": 1541, "ĠAfter": 1542, "Ġwaited": 1543, "Ġquickly": 1544, "cle": 1545, "Ġword": 1546, "Ġbroke": 1547, "ucky": 1548, "Ġgames": 1549, "Ġcast": 1550, "Ġblew": 1551, "Ġgent": 1552, "ĠMommy": 1553, "Ġenjoyed": 1554, "Ġnoticed": 1555, "ation": 1556, "ries": 1557, "Jo": 1558, "Ġset": 1559, "Ġlikes": 1560, "Ġpictures": 1561, "ton": 1562, "de": 1563, "Ġsea": 1564, "Ġheavy": 1565, "Ġgif": 1566, "Ġalone": 1567, "Ġmus": 1568, "asure": 1569, "Ġanything": 1570, "Ġspot": 1571, "Ġmiss": 1572, "Ġhopped": 1573, "Ġturns": 1574, "Ġworld": 1575, "orm": 1576, "Ġyear": 1577, "der": 1578, "Ġbott": 1579, "Ġpen": 1580, "Ġpot": 1581, "Ġpat": 1582, "lc": 1583, "Her": 1584, "Ġmix": 1585, "Ġarm": 1586, "Ġbike": 1587, "Ġtight": 1588, "Ġeverywhere": 1589, "Lucy": 1590, "Ġwon": 1591, "Ġtower": 1592, "Ġthrew": 1593, "Ġhimself": 1594, "Ġfollowed": 1595, "ĠBuddy": 1596, "Ġride": 1597, "man": 1598, "Ġje": 1599, "Ġju": 1600, "less": 1601, "amp": 1602, "Bob": 1603, "ape": 1604, "Ġcomp": 1605, "Ġkey": 1606, "row": 1607, "\".": 1608, "Ġwhite": 1609, "Ġwrong": 1610, "ctor": 1611, "ĠDaisy": 1612, "Ġmakes": 1613, "ĠWhat": 1614, "Ġbreak": 1615, "arent": 1616, "Ġblack": 1617, "Spot": 1618, "ner": 1619, "Do": 1620, "Ġdeep": 1621, "thy": 1622, "Ġmusic": 1623, "ee": 1624, "Ġpol": 1625, "Ġdelic": 1626, "ued": 1627, "cess": 1628, "Ġbee": 1629, "Ġforgot": 1630, "Ġcastle": 1631, "Ġparent": 1632, "olly": 1633, "ves": 1634, "Ġem": 1635, "iet": 1636, "Ġwear": 1637, "Ġhit": 1638, "ister": 1639, "Ġve": 1640, "oun": 1641, "Ġquiet": 1642, "Ġround": 1643, "ance": 1644, "Ġstu": 1645, "Ġdanced": 1646, "ully": 1647, "Ġvis": 1648, "Ġwants": 1649, "Ġleaf": 1650, "Ġnap": 1651, "Ġmonster": 1652, "ĠJohn": 1653, "Ġunderstand": 1654, "ang": 1655, "os": 1656, "Ġbowl": 1657, "rot": 1658, "Ġtalked": 1659, "ren": 1660, "Ġbor": 1661, "itten": 1662, "Ġdry": 1663, "Ġfaster": 1664, "Ġcookies": 1665, "Ġbrought": 1666, "fully": 1667, "Ġleg": 1668, "ross": 1669, "Ġmum": 1670, "ts": 1671, "Ġside": 1672, "Ġsign": 1673, "From": 1674, "ĠInside": 1675, "Ġsmart": 1676, "zz": 1677, "cy": 1678, "Ġrocks": 1679, "Ġsomeone": 1680, "His": 1681, "Ġpoin": 1682, "Ġsharing": 1683, "Ġwell": 1684, "Ġsec": 1685, "Ġfox": 1686, "Ġbutton": 1687, "Ġrel": 1688, "Ġres": 1689, "Ġhappen": 1690, "ĠLila": 1691, "Ġbranch": 1692, "Ġfinished": 1693, "Ġreally": 1694, "ence": 1695, "ards": 1696, "Ġdinner": 1697, "Ġsister": 1698, "eddy": 1699, "Ġflying": 1700, "Ġcontin": 1701, "Ġworried": 1702, "Ġele": 1703, "ĠTo": 1704, "Ġbeach": 1705, "Ġvisit": 1706, "ĠMaybe": 1707, "Ġque": 1708, "Ġsecret": 1709, "Ġel": 1710, "Ġking": 1711, "ĠSarah": 1712, "John": 1713, "gy": 1714, "Ġtoday": 1715, "Ġperfect": 1716, "Ġriver": 1717, "Ġshin": 1718, "Ġeverything": 1719, "Ġsilly": 1720, "Ġdanger": 1721, "ipp": 1722, "ĠJoe": 1723, "Ġchildren": 1724, "Ġgu": 1725, "Ġfield": 1726, "ĠSoon": 1727, "Ġfur": 1728, "Ġfilled": 1729, "Ġelse": 1730, "Ġsmiles": 1731, "Ġwelc": 1732, "ĠAt": 1733, "Ġwish": 1734, "ĠEm": 1735, "While": 1736, "Ġsang": 1737, "Ġgi": 1738, "Ġsnack": 1739, "ze": 1740, "Ġpudd": 1741, "Ġeating": 1742, "Ġpieces": 1743, "Ġrealized": 1744, "Ġpromised": 1745, "Ġspr": 1746, "ord": 1747, "Ġpig": 1748, "Ġfree": 1749, "Ġcontinued": 1750, "Ġbite": 1751, "ead": 1752, "Ġparents": 1753, "Ġcarefully": 1754, "itting": 1755, "ated": 1756, "Ġear": 1757, "Just": 1758, "Ġjar": 1759, "Ġcow": 1760, "Maybe": 1761, "Ġdrag": 1762, "Amy": 1763, "stead": 1764, "Ġblank": 1765, "Ġorange": 1766, "Ġmud": 1767, "Ġcrying": 1768, "Ġenough": 1769, "Ġblanket": 1770, "cket": 1771, "Ġrolled": 1772, "Ġsoup": 1773, "Ġsail": 1774, "Ġpurp": 1775, "imi": 1776, "Ġyes": 1777, "ale": 1778, "Ġdrink": 1779, "Ġsnake": 1780, "ses": 1781, "Ġboun": 1782, "Ġpet": 1783, "Ġfairy": 1784, "Ġthrow": 1785, "Ġlaughing": 1786, "Ġcrab": 1787, "Ġwords": 1788, "Ġamazing": 1789, "Ġbath": 1790, "ich": 1791, "Ġpurple": 1792, "ĠZ": 1793, "Ġwithout": 1794, "Ġbottle": 1795, "ire": 1796, "Ġgift": 1797, "ĠBilly": 1798, "Fin": 1799, "Ġgrandma": 1800, "used": 1801, "ons": 1802, "Ġpast": 1803, "Ġmoney": 1804, "iver": 1805, "fort": 1806, "Ġmail": 1807, "Ġbarked": 1808, "Ġatt": 1809, "Ġwagged": 1810, "Ġmonkey": 1811, "ĠGra": 1812, "chool": 1813, "Ġbrown": 1814, "Ġmoved": 1815, "unch": 1816, "Ġdoctor": 1817, "ises": 1818, "Ġasks": 1819, "Ġgetting": 1820, "Ġclosed": 1821, "Ġwhe": 1822, "Ġwelcome": 1823, "Ġsu": 1824, "Ġcandy": 1825, "gg": 1826, "Ġschool": 1827, "Ġmorning": 1828, "Ġowner": 1829, "Ġlon": 1830, "Ġmother": 1831, "Ġhigher": 1832, "Ġsitting": 1833, ".âĢĿ": 1834, "Ġsmo": 1835, "Ġtreasure": 1836, "!âĢĿ": 1837, "Ġdangerous": 1838, "Ġlonely": 1839, "ĠCh": 1840, "Ġliving": 1841, "Ġapples": 1842, "ush": 1843, "Ġshop": 1844, "vel": 1845, "Ġstrange": 1846, "ased": 1847, "Ġshining": 1848, "Ġroad": 1849, "ere": 1850, "ĠTommy": 1851, "Ġpaw": 1852, "Ġcreat": 1853, "ey": 1854, "una": 1855, "Ġra": 1856, "Ġshoes": 1857, "Ġpre": 1858, "Ġ-": 1859, "ible": 1860, "Ġstre": 1861, "Ġtalking": 1862, "althy": 1863, "Ġcaught": 1864, "Ġegg": 1865, "Ġpass": 1866, "me": 1867, "ol": 1868, "Ġlake": 1869, "Ġbuck": 1870, "Ġruns": 1871, "Ġletter": 1872, "Ġwings": 1873, "Ġchee": 1874, "fish": 1875, "Ġfan": 1876, "Ġmad": 1877, "asket": 1878, "Ġbasket": 1879, "ass": 1880, "Ġdragon": 1881, "app": 1882, "Mommy": 1883, "set": 1884, "cks": 1885, "Ġstone": 1886, "Ġstand": 1887, "Ġthinks": 1888, "Ġdelicious": 1889, "Ġtom": 1890, "Ġpuddle": 1891, "Ġnose": 1892, "ĠMimi": 1893, "Ġbelie": 1894, "ĠBl": 1895, "Ġfarmer": 1896, "board": 1897, "Ġsame": 1898, "Ġyears": 1899, "Ġteddy": 1900, "Ġbat": 1901, "isk": 1902, "Ġmine": 1903, "itch": 1904, "Ġsear": 1905, "ches": 1906, "Ġcoat": 1907, "igh": 1908, "Ġdays": 1909, "Ġbring": 1910, "Ġgentle": 1911, "Ġfit": 1912, "Ġstart": 1913, "Ġwhist": 1914, "Ġfinally": 1915, "Ġcray": 1916, "Ġkite": 1917, "igg": 1918, "Ġscream": 1919, "phant": 1920, "Ġpill": 1921, "arm": 1922, "Ġsinging": 1923, "Ġvill": 1924, "Ġcho": 1925, "ella": 1926, "Ġtasty": 1927, "sw": 1928, "ined": 1929, "Ġph": 1930, "Ġben": 1931, "Ġtrou": 1932, "Ġshell": 1933, "Ġherself": 1934, "Ġhoped": 1935, "Ġwore": 1936, "Ġswings": 1937, "Ġansw": 1938, "sy": 1939, "Ġhor": 1940, "Please": 1941, "Ġpush": 1942, "Ġbelong": 1943, "Ġbush": 1944, "iskers": 1945, "Ġcarrot": 1946, "Ġarri": 1947, "aughty": 1948, "Ġteach": 1949, "bow": 1950, "ract": 1951, "Ġnaughty": 1952, "Ġelephant": 1953, "Ġdropped": 1954, "Ġshap": 1955, "Ġteac": 1956, "ier": 1957, "Ġcoll": 1958, "sc": 1959, "Ġwoke": 1960, "emy": 1961, "Ġpile": 1962, "ball": 1963, "Ġhiding": 1964, "Ġcour": 1965, "Ġmin": 1966, "Ġtouc": 1967, "erry": 1968, "isa": 1969, "llie": 1970, "'ll": 1971, "Ġpuppy": 1972, "Ġseem": 1973, "ama": 1974, "Ġlunch": 1975, "Ġtwins": 1976, "Ġsack": 1977, "Ġbow": 1978, "Ġpers": 1979, "Ġcourse": 1980, "ĠJen": 1981, "Ġcheered": 1982, "Ġshapes": 1983, "Ġgrew": 1984, "Ġrope": 1985, "fused": 1986, "irth": 1987, "Ġvillage": 1988, "irthday": 1989, "Ġjuice": 1990, "ipped": 1991, "Ġrainbow": 1992, "Ġspin": 1993, "OK": 1994, "Ġshook": 1995, "Jack": 1996, "Ġspoon": 1997, "Ġbench": 1998, "Ġstreet": 1999, "Ġfence": 2000, "Ġcute": 2001, "ĠFred": 2002, "Ġrob": 2003, "Ġnut": 2004, "Ġcheese": 2005, "Ġprob": 2006, "Ġtouched": 2007, "idge": 2008, "Ġjoy": 2009, "col": 2010, "ĠWhiskers": 2011, "Ġseed": 2012, "Ġwar": 2013, "Ġteacher": 2014, "Ġarrived": 2015, "Ġcorn": 2016, "Ġforever": 2017, "Ġable": 2018, "Good": 2019, "Ġbell": 2020, "Ġfew": 2021, "Ġcarry": 2022, "Ġplane": 2023, "Ġmost": 2024, "ĠBlue": 2025, "Ġeas": 2026, "lla": 2027, "lem": 2028, "Ġsounds": 2029, "Ġdes": 2030, "Ġspo": 2031, "Ġbirthday": 2032, "Ġproblem": 2033, "br": 2034, "Ġpower": 2035, "Ġinc": 2036, "umb": 2037, "ĊĠ": 2038, "ilk": 2039, "Ġbugs": 2040, "Ġwonderful": 2041, "Ġdolls": 2042, "Ġbusy": 2043, "ato": 2044, "Ġpromise": 2045, "irp": 2046, "Ġwra": 2047, "ĠThank": 2048, "Ġfeels": 2049, "eter": 2050, "eb": 2051, "ian": 2052, "ĠEmma": 2053, "Ġbread": 2054, "Finally": 2055, "Ġmilk": 2056, "Ġneck": 2057, "Ġrobot": 2058, "Ġrec": 2059, "Ġshy": 2060, "Ġkiss": 2061, "ountain": 2062, "irt": 2063, "Ġheart": 2064, "Ġband": 2065, "Ġcave": 2066, "Ġpocket": 2067, "ub": 2068, "gly": 2069, "Ġhelpful": 2070, "Ġbelieve": 2071, "Ġslowly": 2072, "Ġshake": 2073, "umpy": 2074, "eared": 2075, "Ġpatient": 2076, "Ġpop": 2077, "Ġob": 2078, "arp": 2079, "Ġlive": 2080, "Ġstorm": 2081, "Ġugly": 2082, "Ġholding": 2083, "Ġtowards": 2084, "Ġupset": 2085, "Ġshr": 2086, "Ġturt": 2087, "adow": 2088, "Ġcover": 2089, "Ġkitten": 2090, "Ġsharp": 2091, "ost": 2092, "Ġstories": 2093, "Ġdisapp": 2094, "ĠRemy": 2095, "Ġsuc": 2096, "Ġhoney": 2097, "ĠBella": 2098, "ĠLe": 2099, "ove": 2100, "Ġballs": 2101, "read": 2102, "Ġnoises": 2103, "Ġcir": 2104, "Ġspark": 2105, "Ġgray": 2106, "Ġdist": 2107, "Ġdirt": 2108, "Ġlate": 2109, "oggy": 2110, "Ġdriver": 2111, "Ġseat": 2112, "Ġbucket": 2113, "Ġmeet": 2114, "Ġyoung": 2115, "Ġamazed": 2116, "Ġturtle": 2117, "alm": 2118, "Ġtreats": 2119, "Ġspid": 2120, "Ġmagical": 2121, "ator": 2122, "unt": 2123, "Ġglow": 2124, "Ġzoom": 2125, "Ġlem": 2126, "Ġseek": 2127, "umber": 2128, "fortable": 2129, "Ġsandw": 2130, "Ġtrip": 2131, "Ġmist": 2132, "ourn": 2133, "Ġsplas": 2134, "Ġmark": 2135, "Ġjourn": 2136, "Ġfold": 2137, "Ġmach": 2138, "Ġpuzz": 2139, "ling": 2140, "Ġpart": 2141, "Ġwild": 2142, "Ġhorse": 2143, "Ġprincess": 2144, "Ġorgan": 2145, "pping": 2146, "Ġcookie": 2147, "oose": 2148, "ens": 2149, "Sure": 2150, "Ġhugs": 2151, "ĠMark": 2152, "ung": 2153, "Ġtaking": 2154, "Ġwheel": 2155, "epend": 2156, "Ġcloth": 2157, "Ġsug": 2158, "ĠLisa": 2159, "Ġstring": 2160, "Ġbubb": 2161, "Ġinstead": 2162, "Ġnet": 2163, "Ġdrove": 2164, "Ġrude": 2165, "iling": 2166, "Ġhuge": 2167, "Ġcoin": 2168, "Ġstars": 2169, "Ġfighting": 2170, "Be": 2171, "ĠJim": 2172, "Ġspicy": 2173, "Ġlucky": 2174, "Of": 2175, "Ġbone": 2176, "Ġcraw": 2177, "Hey": 2178, "ors": 2179, "Ġinv": 2180, "ĠGrandma": 2181, "not": 2182, "Ġca": 2183, "pper": 2184, "up": 2185, "Ġforget": 2186, "Ġsal": 2187, "Ġdi": 2188, "aur": 2189, "Ġcard": 2190, "ĠFinally": 2191, "Ġwhistle": 2192, "Ġcannot": 2193, "Ġpath": 2194, "Ġsick": 2195, "Ġcou": 2196, "Ġwide": 2197, "Lila": 2198, "Ġspider": 2199, "Ġsongs": 2200, "Ġfoot": 2201, "Ġsnowman": 2202, "Ġlife": 2203, "Ġpillow": 2204, "ize": 2205, "ĠJust": 2206, "ular": 2207, "Later": 2208, "est": 2209, "Ġfixed": 2210, "ĠAnn": 2211, "ert": 2212, "Ġgiant": 2213, "oph": 2214, "rill": 2215, "Ġboss": 2216, "Ġnod": 2217, "Ġcomes": 2218, "Ġlast": 2219, "Ġjoke": 2220, "Ġmoon": 2221, "Ġgrumpy": 2222, "Ġtaste": 2223, "den": 2224, "Ġwave": 2225, "Ġmachine": 2226, "Ġcart": 2227, "Ġthin": 2228, "Ġdrive": 2229, "Ġash": 2230, "Ġser": 2231, "Ġgrab": 2232, "Ġpeace": 2233, "ĠLeo": 2234, "ĠOn": 2235, "lower": 2236, "ery": 2237, "Ġdaddy": 2238, "Ġsel": 2239, "Ġshelf": 2240, "erest": 2241, "Ġsuddenly": 2242, "Ġlanded": 2243, "Ġwasn": 2244, "Ġhidden": 2245, "Ġwrite": 2246, "Ġconfused": 2247, "Ġworm": 2248, "Ġchange": 2249, "Ġring": 2250, "Ġsour": 2251, "oop": 2252, "Ġinterest": 2253, "Ġchased": 2254, "Ġfruits": 2255, "ity": 2256, "Ġmyster": 2257, "Ġrad": 2258, "Ġbark": 2259, "Ġsmooth": 2260, "ĠCome": 2261, "Ġadventures": 2262, "Ġval": 2263, "Ġfle": 2264, "Ġstepped": 2265, "Ġoven": 2266, "ope": 2267, "Ġmissed": 2268, "Ġtakes": 2269, "kin": 2270, "Ġselfish": 2271, "Ġsheep": 2272, "Ġmessy": 2273, "Ġacross": 2274, "To": 2275, "elly": 2276, "Ġce": 2277, "Ġexp": 2278, "ĠN": 2279, "Ġent": 2280, "to": 2281, "ife": 2282, "Ġlater": 2283, "Ġsticks": 2284, "St": 2285, "Ġstep": 2286, "Ġtie": 2287, "Ġbought": 2288, "ever": 2289, "ĠLuna": 2290, "Ġtea": 2291, "Ġdrew": 2292, "Ġban": 2293, "pect": 2294, "irpy": 2295, "box": 2296, "?âĢĿ": 2297, "Ġlay": 2298, "Ġwash": 2299, "Ġbeak": 2300, "Ġpour": 2301, "ose": 2302, "Ġjog": 2303, "Ġgrate": 2304, "Ġducks": 2305, "Ġspe": 2306, "Ġlegs": 2307, "ugg": 2308, "Ġfil": 2309, "ĠBu": 2310, "Ġemp": 2311, "Ġhope": 2312, "Ġslid": 2313, "Ġempty": 2314, "mer": 2315, "Ġfeather": 2316, "amed": 2317, "Ġsleepy": 2318, "Ġzoo": 2319, "Ġdrum": 2320, "Ġgrateful": 2321, "Ġpan": 2322, "Ġphone": 2323, "eth": 2324, "ars": 2325, "Ġfing": 2326, "ions": 2327, "Ġlemon": 2328, "let": 2329, "Ġsmelly": 2330, "ĠCat": 2331, "ĠMolly": 2332, "Ġclever": 2333, "Ġsplash": 2334, "Ġimag": 2335, "Ġinteresting": 2336, "Ġsave": 2337, "Ġchick": 2338, "Ġmed": 2339, "Ġcalm": 2340, "ĠJill": 2341, "Ġwatching": 2342, "Soon": 2343, "izzy": 2344, "izz": 2345, "Ġign": 2346, "Ġbanan": 2347, "Ġplate": 2348, "Ġline": 2349, "Ġclouds": 2350, "yard": 2351, "Ġfaces": 2352, "Ġact": 2353, "Ġba": 2354, "wel": 2355, "Ġwolf": 2356, "Ġthough": 2357, "Ġdogs": 2358, "Ġseemed": 2359, "Ġbackyard": 2360, "Ġspray": 2361, "Come": 2362, "Ġprot": 2363, "Ġwhole": 2364, "Ġfancy": 2365, "Ġmot": 2366, "ĠDaddy": 2367, "erly": 2368, "Ġrocket": 2369, "Ġquest": 2370, "Ġarms": 2371, "Ġhealthy": 2372, "ward": 2373, "Ġsupp": 2374, "Ġpuzzle": 2375, "Ġfinish": 2376, "Ġalong": 2377, "llo": 2378, "Ġexplain": 2379, "dge": 2380, "Ġjewel": 2381, "Ġeasy": 2382, "ont": 2383, "Ġpract": 2384, "Ġjelly": 2385, "Ġtid": 2386, "ĠChirpy": 2387, "Ġfake": 2388, "Ġcrayons": 2389, "Ġwondered": 2390, "Ġmaybe": 2391, "onest": 2392, "Ġship": 2393, "Ġscar": 2394, "iger": 2395, "Ġnothing": 2396, "Ġlonger": 2397, "Ġemb": 2398, "Ġpool": 2399, "Ġanyone": 2400, "ually": 2401, "Ġworking": 2402, "ĠBe": 2403, "Ġfront": 2404, "ĠJerry": 2405, "Ġgives": 2406, "irr": 2407, "Ġsuch": 2408, "Ġpack": 2409, "ĠBunny": 2410, "ocked": 2411, "Ġbossy": 2412, "ment": 2413, "Ġsaved": 2414, "Ġtrouble": 2415, "ĠDoggy": 2416, "Ġsmelled": 2417, "Ġpin": 2418, "Ġhonest": 2419, "iting": 2420, "Ġneigh": 2421, "rass": 2422, "arrass": 2423, "Ġav": 2424, "arge": 2425, "Ġlift": 2426, "Ġforgive": 2427, "Ġembarrass": 2428, "Ġvan": 2429, "Ġtidy": 2430, "Ġweak": 2431, "urse": 2432, "Ġputs": 2433, "unk": 2434, "Ġshirt": 2435, "ĠOllie": 2436, "Ġkick": 2437, "Ġmind": 2438, "ĠWith": 2439, "ĠMomo": 2440, "Ġplants": 2441, "Ġneighb": 2442, "Ġsol": 2443, "Ġcozy": 2444, "Ġgently": 2445, "ming": 2446, "orrow": 2447, "Ġexplor": 2448, "Ġmistake": 2449, "sp": 2450, "oc": 2451, "oomy": 2452, "Ġlad": 2453, "Ġyog": 2454, "ork": 2455, "Ġpointed": 2456, "Ġonto": 2457, "Ġaf": 2458, "Ġcross": 2459, "Ġwaiting": 2460, "Ġjumping": 2461, "Ġstood": 2462, "Ġlock": 2463, "Ġprince": 2464, "Ġcheer": 2465, "Ġqueen": 2466, "ĠWhy": 2467, "ĠMary": 2468, "Ġwing": 2469, "we": 2470, "ones": 2471, "Ġlovely": 2472, "Ġlarge": 2473, "ult": 2474, "Ġchew": 2475, "Ġret": 2476, "Ġsur": 2477, "And": 2478, "Ġstret": 2479, "Ġcouch": 2480, "Ġbal": 2481, "aughter": 2482, "Ġdeer": 2483, "ĠTheir": 2484, "era": 2485, "Ġladder": 2486, "ĠMy": 2487, "Ġplaces": 2488, "Ġreturn": 2489, "Ġdish": 2490, "raid": 2491, "Ġants": 2492, "Ġcleaned": 2493, "Ġafraid": 2494, "Ġtomorrow": 2495, "Ġbuilding": 2496, "Ġperson": 2497, "Sally": 2498, "ek": 2499, "Ġsandwich": 2500, "ned": 2501, "Ġpretended": 2502, "Ġbounce": 2503, "Ġwip": 2504, "gest": 2505, "Ġmatch": 2506, "Ġrich": 2507, "Ġgather": 2508, "Ġsearch": 2509, "Ġpizz": 2510, "uce": 2511, "oman": 2512, "Ġboring": 2513, "Ġhum": 2514, "Kitty": 2515, "ĠSomet": 2516, "aced": 2517, "My": 2518, "Ġteeth": 2519, "Ġdaughter": 2520, "Ġwoman": 2521, "Ġscarf": 2522, "Ġgoes": 2523, "ĠTogether": 2524, "Ġstra": 2525, "Ġlaw": 2526, "Ġswimming": 2527, "Ġfurry": 2528, "Ġsplashed": 2529, "Ġpri": 2530, "Ġscreamed": 2531, "Ġloves": 2532, "Ġtrue": 2533, "Ġlazy": 2534, "Ġgen": 2535, "Ġeag": 2536, "Ġnumber": 2537, "Ġanswer": 2538, "Ġashamed": 2539, "Ġpizza": 2540, "aw": 2541, "Ġappeared": 2542, "Ġnearby": 2543, "Ġfear": 2544, "Ġpowerful": 2545, "ĠSt": 2546, "Ġflag": 2547, "vous": 2548, "Ġhang": 2549, "Ġclown": 2550, "Ġchase": 2551, "Ġwand": 2552, "ĠTV": 2553, "Ġrub": 2554, "Ġmotor": 2555, "Ġsuccess": 2556, "Ġchocol": 2557, "ĠIf": 2558, "Ġtrust": 2559, "Ġcreative": 2560, "Ġwearing": 2561, "Ġmatter": 2562, "Ġnoisy": 2563, "pa": 2564, "Ġdig": 2565, "Ġhello": 2566, "Ġner": 2567, "Ġsaf": 2568, "Ġtool": 2569, "ĠBird": 2570, "Ġnervous": 2571, "elp": 2572, "ado": 2573, "Ġtest": 2574, "Ġsmiling": 2575, "oppy": 2576, "Ġsold": 2577, "icked": 2578, "osaur": 2579, "Ġcircle": 2580, "mb": 2581, "Ġdrank": 2582, "Ġclass": 2583, "Ġtries": 2584, "Ġmap": 2585, "Ġchocolate": 2586, "ĠPlease": 2587, "Ġimpress": 2588, "Ġdinosaur": 2589, "Ġgener": 2590, "Ġpolite": 2591, "Ġknee": 2592, "Ġmirr": 2593, "ĠBobby": 2594, "ĠTiny": 2595, "Ġgold": 2596, "Ġprotect": 2597, "Ġrare": 2598, "Ġcand": 2599, "Stop": 2600, "ĠGo": 2601, "Ġcarried": 2602, "Ġballoons": 2603, "ensive": 2604, "Ġap": 2605, "Ġmirror": 2606, "Ġshadow": 2607, "Ġgun": 2608, "ĠDon": 2609, "Ġexpensive": 2610, "ina": 2611, "Ġbald": 2612, "Ġreg": 2613, "ĠSp": 2614, "iff": 2615, "Ġmysterious": 2616, "Ġnote": 2617, "Ġpump": 2618, "Ġhero": 2619, "Ġmarch": 2620, "Ġicy": 2621, "Ġhar": 2622, "Ġweird": 2623, "Ġrespect": 2624, "arl": 2625, "Ġgate": 2626, "Ġcri": 2627, "Ġsnee": 2628, "Ġsoap": 2629, "issors": 2630, "ute": 2631, "rag": 2632, "Ġtowel": 2633, "Ġthese": 2634, "Ġpoor": 2635, "Ġwhale": 2636, "Ġtape": 2637, "Ġfeet": 2638, "Ġdizzy": 2639, "itter": 2640, "ndpa": 2641, "ĠBenny": 2642, "Ġgenerous": 2643, "Help": 2644, "Ġpres": 2645, "Ġdisco": 2646, "nic": 2647, "ventually": 2648, "Ġlead": 2649, "Ġmic": 2650, "Ġsque": 2651, "Ġpicnic": 2652, "Ġjourney": 2653, "Ġboot": 2654, "Ġsugar": 2655, "Ġembarrassed": 2656, "isp": 2657, "Ġtent": 2658, "Ġpeaceful": 2659, "scape": 2660, "Ġscissors": 2661, "Ġfat": 2662, "ĠBear": 2663, "Ġyelled": 2664, "Ġbrush": 2665, "Ġmel": 2666, "Tommy": 2667, "Ġtasted": 2668, "Ġglue": 2669, "Ġtick": 2670, "Ġdancing": 2671, "ness": 2672, "Ġhur": 2673, "Ġbridge": 2674, "Ġrough": 2675, "Ġclap": 2676, "ote": 2677, "Ġdecor": 2678, "Ġcloset": 2679, "Ġstir": 2680, "Ġcrown": 2681, "Ġprint": 2682, "ual": 2683, "Ġcap": 2684, "imp": 2685, "owed": 2686, "airs": 2687, "ĠSometimes": 2688, "ĠHow": 2689, "ume": 2690, "Ġlamp": 2691, "lebr": 2692, "Ġeld": 2693, "Ġscare": 2694, "Ġvase": 2695, "Ġrelie": 2696, "any": 2697, "lves": 2698, "Ġcelebr": 2699, "Ġtele": 2700, "Ġgigg": 2701, "Ġwhisp": 2702, "ĠDucky": 2703, "Ġblow": 2704, "Ġlog": 2705, "Ġpainted": 2706, "Ġpay": 2707, "Ġsco": 2708, "Ġwis": 2709, "Ġcage": 2710, "Ġmixed": 2711, "erries": 2712, "Ġbake": 2713, "Ġwouldn": 2714, "Ġspread": 2715, "Ġberries": 2716, "rob": 2717, "getable": 2718, "Ġmountain": 2719, "Ġnorm": 2720, "Ġadm": 2721, "Ġbecome": 2722, "Ġfamous": 2723, "Ġdrawing": 2724, "Ġknocked": 2725, "Ġbean": 2726, "asp": 2727, "Ġvegetable": 2728, "Ġkicked": 2729, "ustr": 2730, "Ġshark": 2731, "Ġnormal": 2732, "Ġincred": 2733, "Ġwrap": 2734, "ser": 2735, "ced": 2736, "Ġlose": 2737, "Ġgroup": 2738, "Ġteam": 2739, "Ġglass": 2740, "Ġ3": 2741, "Ġelderly": 2742, "Ġthick": 2743, "Ġignor": 2744, "Ġfine": 2745, "Ġclock": 2746, "Ġclear": 2747, "Ġcorner": 2748, "Ġfrustr": 2749, "Ġmighty": 2750, "Ġincredible": 2751, "robe": 2752, "ĠBr": 2753, "Ġcone": 2754, "ighed": 2755, "Dad": 2756, "Ġmoms": 2757, "Ġsock": 2758, "Ġbalance": 2759, "Ġspace": 2760, "Ġfright": 2761, "Ġjam": 2762, "ragile": 2763, "Ġbranches": 2764, "ĠMama": 2765, "Ġsword": 2766, "Ġroar": 2767, "Ġorganized": 2768, "port": 2769, "Ġfool": 2770, "alous": 2771, "Ġfeed": 2772, "Ġsell": 2773, "Ġguess": 2774, "ĠSome": 2775, "Ġwhich": 2776, "Ġhorn": 2777, "Ġpresent": 2778, "Ġjealous": 2779, "Ġburn": 2780, "Ġyarn": 2781, "ony": 2782, "Ġunderstood": 2783, "Ġfragile": 2784, "Ġmis": 2785, "Ġter": 2786, "Ġstubb": 2787, "Ġfrustrated": 2788, "Where": 2789, "ray": 2790, "cient": 2791, "Ġhose": 2792, "Ġshoe": 2793, "Ġspent": 2794, "Ġtaught": 2795, "Ġstubborn": 2796, "Ġtwist": 2797, "Ġchest": 2798, "Ġrelieved": 2799, "Ġspoiled": 2800, "Ġancient": 2801, "ique": 2802, "Ġpray": 2803, "Ġcreature": 2804, "Ġwake": 2805, "Ġfier": 2806, "Ġeggs": 2807, "Ġfierce": 2808, "Ġgoat": 2809, "Ġterri": 2810, "Ġbarn": 2811, "ym": 2812, "Ġfrightened": 2813, "Ġunique": 2814, "Ġcab": 2815, "Ġpumpkin": 2816, "Ġord": 2817, "Ġmeasure": 2818, "orry": 2819, "Ġcomfortable": 2820, "Ġtoug": 2821, "Ġwagon": 2822, "Ġunus": 2823, "Ġbreath": 2824, "Ġuseful": 2825, "Ġfoolish": 2826, "Ġstraw": 2827, "Ġclay": 2828, "Ġexploring": 2829, "Ġtomato": 2830, "Ġdug": 2831, "dle": 2832, "Ġunusual": 2833, "Ġdiscover": 2834, "ĠPe": 2835, "Ġdead": 2836, "Ġfinding": 2837, "Ġpolice": 2838, "Ġwrote": 2839, "Ġclum": 2840, "Ġexam": 2841, "lace": 2842, "Ġwaves": 2843, "Ġsquare": 2844, "Ġhears": 2845, "Ġdull": 2846, "Ġtells": 2847, "Ġnecklace": 2848, "Ġclumsy": 2849, "Ġcabin": 2850, "Ġtough": 2851, "kn": 2852, "Ġbubbles": 2853, "Together": 2854, "Ġsearched": 2855, "Ġnosy": 2856, "Ġwashed": 2857, "Ġbathroom": 2858, "Ġpaws": 2859, "bby": 2860, "ond": 2861, "unn": 2862, "anged": 2863, "known": 2864, "Ġboard": 2865, "fic": 2866, "Ġasking": 2867, "Ġthankful": 2868, "Ġcrazy": 2869, "Ġbitter": 2870, "cil": 2871, "Ġsunf": 2872, "berry": 2873, "yal": 2874, "Ġdiffic": 2875, "alk": 2876, "Ġswan": 2877, "Ġind": 2878, "Ġpir": 2879, "ĠElla": 2880, "Ġunknown": 2881, "Ġrose": 2882, "Ġbloom": 2883, "Ġpencil": 2884, "Ġcovered": 2885, "Ġdifficult": 2886, "Ġadd": 2887, "Ġfinger": 2888, "Ġhoop": 2889, "Ġham": 2890, "Ġwitch": 2891, "Ġjet": 2892, "Ġdrop": 2893, "Ġ'": 2894, "Me": 2895, "Ġchicken": 2896, "Ġgloomy": 2897, "apped": 2898, "Ġloyal": 2899, "com": 2900, "als": 2901, "Here": 2902, "light": 2903, "Ġwealthy": 2904, "Ġunl": 2905, "Ġcats": 2906, "Ġending": 2907, "Ġcher": 2908, "Ġguit": 2909, "bled": 2910, "Ġjoined": 2911, "shine": 2912, "Ġdove": 2913, "Ġterrible": 2914, "Ġmov": 2915, "ĠRex": 2916, "iant": 2917, "anut": 2918, "Ġyours": 2919, "Ġsalad": 2920, "ĠAndy": 2921, "ĠU": 2922, "Ġnuts": 2923, "Ġlif": 2924, "Ġrat": 2925, "ground": 2926, "Ġpotato": 2927, "Ġmask": 2928, "Ġtiger": 2929, "xible": 2930, "selves": 2931, "erp": 2932, "Ġmoving": 2933, "ormous": 2934, "Ġchanged": 2935, "Ġexciting": 2936, "Ġvalue": 2937, "ĠMany": 2938, "Ġbody": 2939, "ĠTr": 2940, "Ġdisg": 2941, "Ġrecord": 2942, "Ġtoast": 2943, "Ġcheap": 2944, "Ġguitar": 2945, "Ġenormous": 2946, "Ġzip": 2947, "irsty": 2948, "Ġknowing": 2949, "Ġyourself": 2950, "Ġadventur": 2951, "Ġhairy": 2952, "Ġshoot": 2953, "Every": 2954, "ĠBrown": 2955, "Ġbored": 2956, "land": 2957, "Ġsmaller": 2958, "Ġremind": 2959, "Ġacorn": 2960, "Ġpepper": 2961, "Ġadventurous": 2962, "Ġstuff": 2963, "Ġsunshine": 2964, "Ġhats": 2965, "ory": 2966, "Ġknife": 2967, "Ġsnacks": 2968, "Ġflexible": 2969, "Ġperform": 2970, "Ġcost": 2971, "Ġsolve": 2972, "rilliant": 2973, "ĠJimmy": 2974, "Ġshore": 2975, "Ġnods": 2976, "Ġthirsty": 2977, "Ġbrilliant": 2978, "Ġdisgust": 2979, "Ġdelicate": 2980, "Ġfrown": 2981, "Ġstri": 2982, "Ġcollect": 2983, "Ġseeds": 2984, "Ġasleep": 2985, "Ġbanana": 2986, "reen": 2987, "Ġcounted": 2988, "Ġmailbox": 2989, "iness": 2990, "Ġtrick": 2991, "ungle": 2992, "Ġdough": 2993, "Ġheal": 2994, "Ġneighbor": 2995, "Ġmarket": 2996, "Who": 2997, "live": 2998, "ident": 2999, "Ġjungle": 3000, "Ġstage": 3001, "Ġstat": 3002, "Ġsquee": 3003, "Ġexplained": 3004, "Ġdisgusting": 3005, "Ġcube": 3006, "mbre": 3007, "Ġumbre": 3008, "ates": 3009, "Ġlab": 3010, "Jim": 3011, "Ġjolly": 3012, "pid": 3013, "inal": 3014, "corn": 3015, "erpill": 3016, "Ġcaterpill": 3017, "Ġflash": 3018, "ilt": 3019, "Ġsuit": 3020, "und": 3021, "Ġfridge": 3022, "iddle": 3023, "Ġrh": 3024, "Ġsunflower": 3025, "ĠAl": 3026, "Ġrelax": 3027, "Ġcrane": 3028, "iginal": 3029, "Ġharm": 3030, "Ġisland": 3031, "Ġtimes": 3032, "Ġshiver": 3033, "Ġstupid": 3034, "Ġfour": 3035, "Ġmedic": 3036, "ĠInstead": 3037, "ĠWhile": 3038, "Ġgoose": 3039, "ying": 3040, "Ġcomb": 3041, "ict": 3042, "edient": 3043, "Ġcro": 3044, "ĠWill": 3045, "Ġstove": 3046, "If": 3047, "Ġspring": 3048, "Are": 3049, "Ġindepend": 3050, "Mum": 3051, "most": 3052, "Ġbatter": 3053, "Ġrug": 3054, "Ġgem": 3055, "pes": 3056, "Ġsighed": 3057, "Ġmedicine": 3058, "Ġvegetables": 3059, "Ġoriginal": 3060, "Ġdepend": 3061, "How": 3062, "Ġstones": 3063, "Ġstamp": 3064, "ĠYour": 3065, "Ġcareless": 3066, "Ġshine": 3067, "Ġjeep": 3068, "Ġgar": 3069, "Inside": 3070, "Ġcarrots": 3071, "gu": 3072, "Ġscr": 3073, "Ġcries": 3074, "Ġobedient": 3075, "Ġpopcorn": 3076, "Ġstudy": 3077, "Ġsuccessful": 3078, "Ġalmost": 3079, "Ġmiddle": 3080, "Ġsauce": 3081, "Ġindependent": 3082, "Ġmagn": 3083, "Ġmeal": 3084, "Ġcaterpillar": 3085, "Ġjack": 3086, "ĠSammy": 3087, "Ġfearful": 3088, "Sorry": 3089, "met": 3090, "inky": 3091, "Ġpebb": 3092, "Ġescape": 3093, "Ġeager": 3094, "Ġparrot": 3095, "Ġserious": 3096, "aken": 3097, "Ġbedroom": 3098, "Ġhelmet": 3099, "Ġstatue": 3100, "Ġgets": 3101, "Ġpeanut": 3102, "Ġdest": 3103, "Ġpasta": 3104, "ĠNo": 3105, "Ġraven": 3106, "Ġang": 3107, "Ġfountain": 3108, "Ġcompet": 3109, "There": 3110, "Ġumbrella": 3111, "Ġjacket": 3112, "Ġbelonged": 3113, "Ġfilthy": 3114, "Ġborrow": 3115, "Ġcam": 3116, "erable": 3117, "Ġdesign": 3118, "Ġprize": 3119, "Ġhay": 3120, "Ġhouses": 3121, "Ġstanding": 3122, "Ġbrace": 3123, "Ġraced": 3124, "Ġmiserable": 3125, "ages": 3126, "Ġtaken": 3127, "Ġcrayon": 3128, "io": 3129, "Ġpainting": 3130, "Ġtriang": 3131, "Ġfig": 3132, "Ġchoose": 3133, "Ġimpressive": 3134, "Ġfork": 3135, "Ġtied": 3136, "Ġlifted": 3137, "Ġspotted": 3138, "iable": 3139, "ours": 3140, "Ġslipped": 3141, "Ġthoughtful": 3142, "Ġtank": 3143, "Ġsteal": 3144, "Ġdependable": 3145, "enny": 3146, "Ġmush": 3147, "Ġgarage": 3148, "Ġbuilt": 3149, "Ġer": 3150, "Ġcrawled": 3151, "Ġmole": 3152, "Ġscale": 3153, "ipe": 3154, "Ġpant": 3155, "Ġboats": 3156, "Ġbottom": 3157, "lph": 3158, "Ġcheerful": 3159, "Ġpicks": 3160, "Ġusing": 3161, "Ġpian": 3162, "Ġsmoke": 3163, "Ġhammer": 3164, "Ġshows": 3165, "berries": 3166, "Ġmoder": 3167, "Ġref": 3168, "dile": 3169, "codile": 3170, "Ġeng": 3171, "rn": 3172, "Ġmagnet": 3173, "Ġcrack": 3174, "inary": 3175, "Ġhurts": 3176, "Ġmelon": 3177, "Ġpiano": 3178, "Ġaunt": 3179, "cream": 3180, "Ġdolph": 3181, "Ġwaff": 3182, "unnel": 3183, "Ġmodern": 3184, "Ġtunnel": 3185, "pack": 3186, "Ġarrow": 3187, "oin": 3188, "Ġmushroom": 3189, "Timmy": 3190, "Ġreliable": 3191, "Ġsquash": 3192, "Ġhopping": 3193, "Ġjug": 3194, "Ġgum": 3195, "Ġmovie": 3196, "Ġsink": 3197, "Their": 3198, "Ġlean": 3199, "Ġflute": 3200, "iv": 3201, "Ġpopular": 3202, "Ġbeet": 3203, "Ġtax": 3204, "Ġsil": 3205, "opter": 3206, "icopter": 3207, "Ġones": 3208, "Ġcompetit": 3209, "Ġcryst": 3210, "Ġneeds": 3211, "aser": 3212, "Ġliz": 3213, "Molly": 3214, "Ġcrocodile": 3215, "ipop": 3216, "llipop": 3217, "Ġtroubled": 3218, "Ġpress": 3219, "Ġhelicopter": 3220, "Ġpige": 3221, "Ġplayful": 3222, "Ġtricks": 3223, "Ġlocked": 3224, "Ġhumble": 3225, "Ġlollipop": 3226, "comfortable": 3227, "Ġkissed": 3228, "appy": 3229, "amond": 3230, "Ġuncomfortable": 3231, "Ġlow": 3232, "atch": 3233, "host": 3234, "Ġwander": 3235, "Ġrid": 3236, "Ġtaxi": 3237, "Ġanx": 3238, "Ġmuff": 3239, "cles": 3240, "Ġangel": 3241, "edy": 3242, "Ġgrace": 3243, "Ġpants": 3244, "atter": 3245, "Ġdiamond": 3246, "Ġtorn": 3247, "Ġtwig": 3248, "Ġwrapped": 3249, "oto": 3250, "Ġhelps": 3251, "ĠSn": 3252, "Ġanxious": 3253, "Ġcamera": 3254, "Ġdisappoin": 3255, "Ġghost": 3256, "Ġruined": 3257, "ĠJenny": 3258, "cident": 3259, "Ġtears": 3260, "aff": 3261, "Ġfis": 3262, "ĠEven": 3263, "Ġenv": 3264, "Ġbelt": 3265, "ilty": 3266, "Ġquar": 3267, "opl": 3268, "eropl": 3269, "Ġguilty": 3270, "Ġhappiness": 3271, "Ġboys": 3272, "Ġlizard": 3273, "Ġhelpless": 3274, "Ġbull": 3275, "Ġaeropl": 3276, "cean": 3277, "Ġpassed": 3278, "Ġwalks": 3279, "cut": 3280, "Ġcere": 3281, "Ġocean": 3282, "Ġmeant": 3283, "Ġfluffy": 3284, "Ġdeaf": 3285, "Ġstretch": 3286, "Ġbracelet": 3287, "Ġwire": 3288, "tt": 3289, "Ġnail": 3290, "Ġcandle": 3291, "zed": 3292, "Ġcact": 3293, "Ġharmless": 3294, "Ġcop": 3295, "Ġmop": 3296, "umpet": 3297, "Ġordinary": 3298, "Ġbees": 3299, "Ġanswered": 3300, "Ġradio": 3301, "Ġbeetle": 3302, "Ġtire": 3303, "Ġquarrel": 3304, "Ġcollar": 3305, "Ġshape": 3306, "Ġflashlight": 3307, "Ġtrumpet": 3308, "Ġpoured": 3309, "Ġengine": 3310, "Ġharder": 3311, "Mama": 3312, "Ġcrystal": 3313, "Ġpersist": 3314, "Ġhunt": 3315, "Ġinvited": 3316, "Ġcereal": 3317, "Ġspill": 3318, "Ġtag": 3319, "Ġtooth": 3320, "Ġoffice": 3321, "Ġcharm": 3322, "Ġcomput": 3323, "coa": 3324, "Ġscoot": 3325, "Ġlit": 3326, "Ġmelt": 3327, "Ġrep": 3328, "Ġtriangle": 3329, "ief": 3330, "Ġaccident": 3331, "Ġspend": 3332, "Ġmug": 3333, "hett": 3334, "Ġcomet": 3335, "aghett": 3336, "aghetti": 3337, "Ġshade": 3338, "Ġyogurt": 3339, "Ġcompass": 3340, "ube": 3341, "Ġcush": 3342, "Ġdisappointed": 3343, "Ġlicked": 3344, "Ġfigure": 3345, "Ġavoc": 3346, "aze": 3347, "Ġcactus": 3348, "Ġregular": 3349, "Ġgiving": 3350, "Ġpale": 3351, "Ġwhispered": 3352, "uth": 3353, "Ġbarber": 3354, "Ġcreate": 3355, "ellig": 3356, "Ġsheet": 3357, "Ġroof": 3358, "Jane": 3359, "ither": 3360, "asses": 3361, "Ġintellig": 3362, "Ġpracticed": 3363, "Ġload": 3364, "Ġlibr": 3365, "Ġrode": 3366, "Ġharsh": 3367, "Ġdelight": 3368, "Ġgifted": 3369, "Ġpow": 3370, "Ġthread": 3371, "Ġpipe": 3372, "Ġspaghetti": 3373, "Ġvi": 3374, "ĠTrue": 3375, "urkey": 3376, "azz": 3377, "Ġsailed": 3378, "Ġdust": 3379, "ccol": 3380, "ubby": 3381, "Ġbicy": 3382, "Ġforward": 3383, "Ġcompassion": 3384, "ccoli": 3385, "Ġpro": 3386, "Ġenvel": 3387, "Ġpersistent": 3388, "Ġspeed": 3389, "Ġcocoa": 3390, "Ġmitten": 3391, "Ġcoo": 3392, "hip": 3393, "Ġquestions": 3394, "Ġfeathers": 3395, "Ġcomputer": 3396, "ging": 3397, "Ġpigeon": 3398, "Ġdesk": 3399, "Ġshrimp": 3400, "Bobo": 3401, "Ġglove": 3402, "Ġstream": 3403, "Ġturkey": 3404, "Ġcharming": 3405, "Ġenvious": 3406, "Ġrice": 3407, "Ġcarp": 3408, "Ġinse": 3409, "Ġstronger": 3410, "Ġears": 3411, "Ġknot": 3412, "omes": 3413, "lcan": 3414, "Ġraft": 3415, "weet": 3416, "Ġcoins": 3417, "Ġtap": 3418, "Ġwheat": 3419, "Ġtrap": 3420, "lcano": 3421, "Ġboxes": 3422, "Ġtrunk": 3423, "Ġchubby": 3424, "umbers": 3425, "Ġcarpet": 3426, "Ġfriendship": 3427, "Ġaeroplane": 3428, "Ġrestless": 3429, "Ġdreams": 3430, "Ġspun": 3431, "Ġintelligent": 3432, "Ġhalf": 3433, "ulif": 3434, "Ġtube": 3435, "Ġcrawl": 3436, "Ġdeliver": 3437, "olin": 3438, "Ġweek": 3439, "anger": 3440, "Ġacce": 3441, "Ġloop": 3442, "Ġonion": 3443, "Ġvide": 3444, "ĠJake": 3445, "Ġbroccoli": 3446, "Ġbri": 3447, "Ġsle": 3448, "Ġvolcano": 3449, "Ġcaulif": 3450, "Ġvine": 3451, "ye": 3452, "essie": 3453, "Ġlouder": 3454, "Ġticket": 3455, "Ġthief": 3456, "Ġtrack": 3457, "Ġpebble": 3458, "cycle": 3459, "Ġmill": 3460, "asing": 3461, "Ġsleeping": 3462, "Ġnumbers": 3463, "Ġinsect": 3464, "Ġyaw": 3465, "Ġhaircut": 3466, "Ġalert": 3467, "ital": 3468, "Ġdestro": 3469, "Ġeventually": 3470, "Ġattract": 3471, "Ġexcite": 3472, "ulu": 3473, "Ġhosp": 3474, "ĠToday": 3475, "Ġreturned": 3476, "Ġeraser": 3477, "ĠEmily": 3478, "isted": 3479, "Ġhappening": 3480, "Ġhospital": 3481, "Ġplanet": 3482, "Ġscreen": 3483, "Ġgraceful": 3484, "Ġdecide": 3485, "ache": 3486, "Ġuniver": 3487, "Ġlearning": 3488, "Ġleop": 3489, "ĠOK": 3490, "Ġnicely": 3491, "Ġcelebrate": 3492, "rework": 3493, "Ġcauliflower": 3494, "Ġcompetitive": 3495, "Ġpoem": 3496, "Ġpeach": 3497, "Ġsaus": 3498, "Ġattractive": 3499, "Ġcurt": 3500, "atient": 3501, "Ġsoldier": 3502, "Ġdolphin": 3503, "Ġbase": 3504, "Ġparade": 3505, "Ġcurtain": 3506, "ulb": 3507, "Go": 3508, "Ġways": 3509, "Ġtravel": 3510, "Ġscatter": 3511, "Ġignorant": 3512, "ats": 3513, "Ġviolin": 3514, "Ġrod": 3515, "Ġwheels": 3516, "Ġyach": 3517, "Ġenvelope": 3518, "Ġdeter": 3519, "Ġcompassionate": 3520, "Ġbarrel": 3521, "Ġbubble": 3522, "Ġlying": 3523, "Ġsort": 3524, "zzy": 3525, "Ġfirework": 3526, "Ġthu": 3527, "Ġquestion": 3528, "Ġbulb": 3529, "Ġtem": 3530, "Ġdeterm": 3531, "Ġleopard": 3532, "Ġscooter": 3533, "ĠPipp": 3534, "Ġneedle": 3535, "elery": 3536, "Ġjudge": 3537, "Ġrag": 3538, "ĠFr": 3539, "Ġbicycle": 3540, "Ġyacht": 3541, "Ġcricket": 3542, "Ġorder": 3543, "Ġhomes": 3544, "Ġador": 3545, "Ġtruth": 3546, "tern": 3547, "igator": 3548, "dom": 3549, "Ġpony": 3550, "ete": 3551, "Ġhook": 3552, "Ġrubbed": 3553, "Sarah": 3554, "Ġuncle": 3555, "Ġbushes": 3556, "Ġcushion": 3557, "Ġgrown": 3558, "Ġspell": 3559, "Ġcooked": 3560, "Ġadorable": 3561, "Ġchalk": 3562, "Ġsoar": 3563, "Ġimpatient": 3564, "Ġskin": 3565, "Ġshells": 3566, "Ġthemselves": 3567, "Ġpurse": 3568, "Ġcelery": 3569, "Ġtray": 3570, "Ġprun": 3571, "Ġpengu": 3572, "Ġseal": 3573, "Ġsniff": 3574, "Ġlively": 3575, "Ġwalls": 3576, "Ġalligator": 3577, "Ġcase": 3578, "Ġradish": 3579, "Ġsaying": 3580, "Ġspeak": 3581, "Ġdistant": 3582, "illa": 3583, "Ġsend": 3584, "Ġmotorcycle": 3585, "Ġcleaning": 3586, "Ġbounced": 3587, "Ġforth": 3588, "Ġcounting": 3589, "Ġmeat": 3590, "Ġspinning": 3591, "Ġed": 3592, "Ġchain": 3593, "Ġslept": 3594, "Ġenth": 3595, "Ġpit": 3596, "Ġbin": 3597, "Ġsteak": 3598, "Ġmarry": 3599, "Ġfilm": 3600, "Ġsurf": 3601, "urb": 3602, "Ġdestroy": 3603, "ebra": 3604, "Ġbehave": 3605, "usia": 3606, "Ġwallet": 3607, "Ġmetal": 3608, "Ġenthusia": 3609, "Ġskip": 3610, "Ġbiggest": 3611, "ision": 3612, "Ġwiped": 3613, "Ġavocado": 3614, "ĠSh": 3615, "vator": 3616, "ebook": 3617, "Ġnotebook": 3618, "Ġpost": 3619, "Ġimpro": 3620, "Ġlaughs": 3621, "chair": 3622, "Ġpattern": 3623, "Ġbandage": 3624, "Ġelevator": 3625, "Ġdive": 3626, "ĠBuzz": 3627, "Ġskipped": 3628, "Ġshut": 3629, "Ġunlock": 3630, "Ġdiary": 3631, "usie": 3632, "ject": 3633, "dest": 3634, "Ġdisturb": 3635, "rage": 3636, "ating": 3637, "aged": 3638, "Ġbags": 3639, "Ġshowing": 3640, "Ġpole": 3641, "Ġclub": 3642, "Ġoy": 3643, "Ġearth": 3644, "Ġzebra": 3645, "Ġarmchair": 3646, "Ġgathered": 3647, "Ġnurse": 3648, "bul": 3649, "ĠPoppy": 3650, "Ġtemp": 3651, "Ġenc": 3652, "Ġjellyfish": 3653, "Ġsweater": 3654, "Ġcompl": 3655, "Ġstranger": 3656, "Ġscrew": 3657, "Give": 3658, "Ġfather": 3659, "bulance": 3660, "Ġbump": 3661, "Ġlime": 3662, "Ġambulance": 3663, "Ġskull": 3664, "nam": 3665, "Ġloudly": 3666, "Ġfolder": 3667, "Ġmixer": 3668, "ĠLulu": 3669, "Gra": 3670, "Ġshield": 3671, "Ġjournal": 3672, "ito": 3673, "Ġlibrary": 3674, "ĠPeter": 3675, "Ġbuttons": 3676, "ĠBet": 3677, "Ġplayground": 3678, "Ġink": 3679, "Ġcity": 3680, "Ġpointing": 3681, "Ġtrucks": 3682, "Ġlights": 3683, "Ġtummy": 3684, "Ġstation": 3685, "Ġdecorate": 3686, "irit": 3687, "Billy": 3688, "Ġprep": 3689, "quito": 3690, "Ġfalls": 3691, "ĠFo": 3692, "ention": 3693, "Ġfu": 3694, "Ġherb": 3695, "nger": 3696, "Ġguard": 3697, "ĠPolly": 3698, "ĠBirdy": 3699, "lies": 3700, "Ġknows": 3701, "Ġornam": 3702, "Ġornament": 3703, "Ġmodest": 3704, "Ġmos": 3705, "oby": 3706, "Ġattic": 3707, "Ġcord": 3708, "Ġpolish": 3709, "Ġmosquito": 3710, "ctop": 3711, "Ġsalt": 3712, "umbled": 3713, "Ġyet": 3714, "Ġwhenever": 3715, "Ġmarble": 3716, "Ġple": 3717, "Ġresc": 3718, "Ġdisappeared": 3719, "Ġvest": 3720, "Ġstrawberry": 3721, "ceed": 3722, "ĠMum": 3723, "Ġpirate": 3724, "Ġonce": 3725, "Ġbrothers": 3726, "Ġsplit": 3727, "Ġitch": 3728, "Ġaut": 3729, "Ġkay": 3730, "Ġhipp": 3731, "ctopus": 3732, "Ġfootball": 3733, "Ġled": 3734, "kele": 3735, "keleton": 3736, "uring": 3737, "Ġsupport": 3738, "Ġdriving": 3739, "Ġcupboard": 3740, "Ġcable": 3741, "Ġcalling": 3742, "Ġwishes": 3743, "aky": 3744, "Ġtripped": 3745, "ushed": 3746, "Ġcomplet": 3747, "obile": 3748, "Ġoctopus": 3749, "Ġroot": 3750, "Ġadded": 3751, "Ġmild": 3752, "Ġsung": 3753, "omobile": 3754, "Ġedge": 3755, "Ġkayak": 3756, "?\".": 3757, "Ġsucceed": 3758, "Ġdetermined": 3759, "Ġcoal": 3760, "stic": 3761, "Ġautomobile": 3762, "Ġcomplain": 3763, "Ġthunder": 3764, "Ġreading": 3765, "Well": 3766, "utes": 3767, "par": 3768, "Ġstack": 3769, "Ġsuggest": 3770, "Ġkindness": 3771, "Ġenthusiastic": 3772, "Ġdrawer": 3773, "Ġsneeze": 3774, "Ġflea": 3775, "ĠLittle": 3776, "Ġyoga": 3777, "Ġcartoon": 3778, "Ġgrowl": 3779, "htub": 3780, "Ġribb": 3781, "Ġmeadow": 3782, "Ġmeans": 3783, "Ġgor": 3784, "Ġbathtub": 3785, "Ġgolf": 3786, "la": 3787, "ophone": 3788, "Ġhall": 3789, "Ġchess": 3790, "Ġmath": 3791, "Ġskeleton": 3792, "Ġveil": 3793, "Ġhunter": 3794, "Ġflame": 3795, "work": 3796, "Ġpoke": 3797, "lasses": 3798, "Ġpenny": 3799, "Ġvideo": 3800, "Ġcups": 3801, "Ġmatt": 3802, "Ġtroph": 3803, "Ġsunglasses": 3804, "Ġrepair": 3805, "Ġspear": 3806, "Ġhippo": 3807, "Ġglowing": 3808, "Ġitself": 3809, "Ġoyster": 3810, "Ġdrawings": 3811, "Ġteleph": 3812, "Ġmuffin": 3813, "Ġswitch": 3814, "Ġcostume": 3815, "Ġrepe": 3816, "Ġzipp": 3817, ",âĢĿ": 3818, "Ġdess": 3819, "Ġmaze": 3820, "Ġarg": 3821, "iron": 3822, "ric": 3823, "Ġpastry": 3824, "Ġpun": 3825, "Ġminutes": 3826, "Ġrolling": 3827, "Ġhandle": 3828, "Ġpacked": 3829, "Ġmakeup": 3830, "ĠPeople": 3831, "Ġtelephone": 3832, "ĠMiss": 3833, "ait": 3834, "Ġpine": 3835, "Ġwaffle": 3836, "case": 3837, "Ġgear": 3838, "Ġpear": 3839, "Ġknight": 3840, "aving": 3841, "Ġmattress": 3842, "Ġshocked": 3843, "Ġpowder": 3844, "Ġhedge": 3845, "Ġpackage": 3846, "Ġframe": 3847, "Ġtrophy": 3848, "ines": 3849, "Ġcob": 3850, "Ġmissile": 3851, "Ġwife": 3852, "Ġmanaged": 3853, "Ġencou": 3854, "Ġsepar": 3855, "Ġok": 3856, "web": 3857, "Ġstairs": 3858, "Ġrot": 3859, "urch": 3860, "time": 3861, "Ġcamp": 3862, "Ġgrapes": 3863, "rophone": 3864, "Ġmagaz": 3865, "Ġcolour": 3866, "Ġstrugg": 3867, "head": 3868, "old": 3869, "per": 3870, "Ġbasketball": 3871, "Bye": 3872, "Ġcobweb": 3873, "ĠTina": 3874, "Ġfile": 3875, "Re": 3876, "ĠTweet": 3877, "Ġwool": 3878, "Jimmy": 3879, "esday": 3880, "See": 3881, "Ġgasp": 3882, "keep": 3883, "Ġperm": 3884, "Ġeye": 3885, "Ġmicrophone": 3886, "Ġleash": 3887, "iew": 3888, "ĠDan": 3889, "Ġweep": 3890, "Ġsafely": 3891, "offe": 3892, "Ġtear": 3893, "Ġbarking": 3894, "ature": 3895, "offee": 3896, "Ġview": 3897, "Ġslides": 3898, "Ġstaff": 3899, "Ġbananas": 3900, "Ġsteps": 3901, "Ġgorilla": 3902, "istol": 3903, "Ġspirit": 3904, "Ġgiggled": 3905, "Ġtask": 3906, "was": 3907, "Ġhoc": 3908, "Ġvend": 3909, "ĠRose": 3910, "Ġthose": 3911, "Ġhockey": 3912, "Ġcooler": 3913, "Jill": 3914, "cing": 3915, "Ġsailor": 3916, "washer": 3917, "Ġearly": 3918, "Ġmarched": 3919, "Ġhotel": 3920, "ĠLook": 3921, "Ġflour": 3922, "Ġmint": 3923, "Ġphoto": 3924, "rosc": 3925, "Ġremain": 3926, "Ġdessert": 3927, "ĠPete": 3928, "ilot": 3929, "Ġoft": 3930, "otter": 3931, "Ġoften": 3932, "hic": 3933, "Ġchurch": 3934, "Ġotter": 3935, "Ġcooking": 3936, "Ġgrandpa": 3937, "Ġvehic": 3938, "chor": 3939, "Ġsausage": 3940, "Ġeither": 3941, "roscope": 3942, "Ġmedal": 3943, "Ġfive": 3944, "Ġtemple": 3945, "Ġdishwasher": 3946, "Ġbaseball": 3947, "Ġten": 3948, "Ġpretending": 3949, "Ġpistol": 3950, "Ġpee": 3951, "Ġtools": 3952, "Ġsight": 3953, "Ġrever": 3954, "Ġorganize": 3955, "Ġvendor": 3956, "Ġknock": 3957, "Ġthinking": 3958, "Ġbattery": 3959, "Ġfireman": 3960, "Ġgrill": 3961, "Ġiron": 3962, "Ġopens": 3963, "Ġow": 3964, "Ġoil": 3965, "Ġrealised": 3966, "Ġsne": 3967, "Ġlaser": 3968, "Ġpatch": 3969, "Ġhours": 3970, "Ġsandbox": 3971, "Ġrise": 3972, "'d": 3973, "Ġanchor": 3974, "ense": 3975, "ĠGive": 3976, "seum": 3977, "ctory": 3978, "Ġwhip": 3979, "Ġshort": 3980, "Ġtrash": 3981, "Ġrhin": 3982, "ney": 3983, "ĠBetty": 3984, "Ġlotion": 3985, "ĠSunny": 3986, "Ġmuseum": 3987, "Ġfactory": 3988, "Ġmay": 3989, "Ġcardboard": 3990, "ately": 3991, "Ġward": 3992, "Ġvalu": 3993, "ugged": 3994, "Ġhive": 3995, "apers": 3996, "Al": 3997, "Ġwardrobe": 3998, "Ġcoffee": 3999, "Ġmessage": 4000, "Ġcell": 4001, "Ġnapkin": 4002, "ucet": 4003, "Ġtowers": 4004, "Ġur": 4005, "ailable": 4006, "Ġhanging": 4007, "ination": 4008, "keeper": 4009, "Fluffy": 4010, "Ġblackboard": 4011, "loo": 4012, "ĠZoom": 4013, "Ġmem": 4014, "Ġpilot": 4015, "Ġquit": 4016, "ready": 4017, "ron": 4018, "Ġexcitement": 4019, "Ġpenguin": 4020, "eer": 4021, "Ġreward": 4022, "ĠRob": 4023, "Ġpicking": 4024, "Ġcheck": 4025, "Ġfaucet": 4026, "ĠSnow": 4027, "Ġig": 4028, "ĠPippin": 4029, "Ġdreamed": 4030, "place": 4031, "Ġpassport": 4032, "azor": 4033, "Ġcane": 4034, "Ġigloo": 4035, "Ġstumbled": 4036, "ĠBessie": 4037, "Ġjuicy": 4038, "aroo": 4039, "Ġsett": 4040, "angaroo": 4041, "Ġfreez": 4042, "play": 4043, "Ġavailable": 4044, "Ġalready": 4045, "Ġallowed": 4046, "Ġholds": 4047, "Ġbathe": 4048, "Ġnewsp": 4049, "Ġfingers": 4050, "imney": 4051, "Ġhanger": 4052, "htray": 4053, "Ġtornado": 4054, "Ġfisher": 4055, "Ġsize": 4056, "Ġoak": 4057, "Ġlend": 4058, "Ġlaund": 4059, "Ġlaundry": 4060, "Ġchimney": 4061, "Ġkangaroo": 4062, "ĠEverywhere": 4063, "Ġmule": 4064, "Ġmen": 4065, "body": 4066, "Ġtelling": 4067, "Ġcherries": 4068, "Ġnovel": 4069, "Ġpal": 4070, "Em": 4071, "Ġmummy": 4072, "Ġspilled": 4073, "Ġnotice": 4074, "Ġpractice": 4075, "ampoo": 4076, "Ġenjoying": 4077, "Ġcomplete": 4078, "Ġgain": 4079, "arian": 4080, "ocer": 4081, "Ġreind": 4082, "Ġsub": 4083, "Ġmicroscope": 4084, "Ġfireplace": 4085, "Ġdisplay": 4086, "Ġshrink": 4087, "Ġimagine": 4088, "ĠZip": 4089, "Ġhurry": 4090, "Ġfastest": 4091, "Ġmagazine": 4092, "anda": 4093, "Ġcabinet": 4094, "gen": 4095, "Wait": 4096, "ĠSpike": 4097, "Ġashtray": 4098, "Ġpalace": 4099, "Ġcows": 4100, "Joe": 4101, "aches": 4102, "Ġrake": 4103, "Ġfalling": 4104, "oceros": 4105, "Ġimprove": 4106, "Ġskirt": 4107, "Ġstared": 4108, "ured": 4109, "Ġdiscovered": 4110, "Ġreindeer": 4111, "aid": 4112, "Ġsilver": 4113, "Ġtrail": 4114, "Ġroared": 4115, "Is": 4116, "Ġminer": 4117, "Ġtub": 4118, "Ġfog": 4119, "come": 4120, "Ġax": 4121, "stairs": 4122, "Ġbill": 4123, "iction": 4124, "Ġtaller": 4125, "Ġfisherman": 4126, "Ġhut": 4127, "Ġhappier": 4128, "Ġvaluable": 4129, "Ġtoile": 4130, "Ġpor": 4131, "vision": 4132, "Ġobject": 4133, "ictionary": 4134, "Ġoats": 4135, "Ġshampoo": 4136, "Ġoffered": 4137, "Ġrhinoceros": 4138, "Ġholes": 4139, "Ġboots": 4140, "Ġclimbing": 4141, "Ġblin": 4142, "Ġzipper": 4143, "Ġtoilet": 4144, "Ġstretched": 4145, "Ġnames": 4146, "Ow": 4147, "vice": 4148, "iest": 4149, "Ġjewelry": 4150, "Ġtelevision": 4151, "Ġlistening": 4152, "Ġjokes": 4153, "Ġsym": 4154, "Ġprov": 4155, "Ġbathrobe": 4156, "ĠHere": 4157, "Ġaxe": 4158, "alend": 4159, "Ġfuel": 4160, "Ġsparkly": 4161, "Ġstops": 4162, "Ġjumps": 4163, "Ġcalend": 4164, "cu": 4165, "Mummy": 4166, "Ġbury": 4167, "bol": 4168, "Ġperfume": 4169, "ĠKim": 4170, "ĠSusie": 4171, "Ġpressed": 4172, "lu": 4173, "ĠToby": 4174, "Ġrece": 4175, "Ġneat": 4176, "Ġsnap": 4177, "Ġpopped": 4178, "Ġgasped": 4179, "reek": 4180, "Ġattach": 4181, "Mr": 4182, "Ġsymbol": 4183, "Ġpapers": 4184, "Ġcalendar": 4185, "arry": 4186, "Ġunpack": 4187, "Ġopera": 4188, "Ġcreek": 4189, "Ġresist": 4190, "Ġdictionary": 4191, "Ġtuna": 4192, "Ġsubway": 4193, "Ġchose": 4194, "Ġfreezer": 4195, "Ġletters": 4196, "Ġpinch": 4197, "zag": 4198, "Ġsuper": 4199, "Ġporch": 4200, "Ġbikes": 4201, "affe": 4202, "Ġspoke": 4203, "Ġanyway": 4204, "Ġlie": 4205, "Ġhelper": 4206, "ĠMar": 4207, "Ġweigh": 4208, "iches": 4209, "Ġshaking": 4210, "Ġcomfort": 4211, "Ġtightly": 4212, "Ġson": 4213, "Ġnewspaper": 4214, "Ġbookcase": 4215, "igzag": 4216, "Ġrazor": 4217, "Ġsandwiches": 4218, "ĠAre": 4219, "Ġagainst": 4220, "aurant": 4221, "Ġext": 4222, "Ġstickers": 4223, "Ġblouse": 4224, "Ġswinging": 4225, "Ġrestaurant": 4226, "Ġgym": 4227, "Ġdisag": 4228, "te": 4229, "Ġsquirrels": 4230, "Ġvehicle": 4231, "Ġped": 4232, "del": 4233, "Ġnature": 4234, "ival": 4235, "Ġbelongs": 4236, "xy": 4237, "Ġswamp": 4238, "Ġbutterflies": 4239, "Ġgrowing": 4240, "omed": 4241, "Ġbuckle": 4242, "Ġmustache": 4243, "Ġinclu": 4244, "Ġalarm": 4245, "Ġstirred": 4246, "Ġbillboard": 4247, "Ġlip": 4248, "Ġbeep": 4249, "Ġfest": 4250, "Ġlightning": 4251, "Ġdistance": 4252, "Ġhung": 4253, "Ġcards": 4254, "utor": 4255, "Little": 4256, "Ġobser": 4257, "Ġrubber": 4258, "ogn": 4259, "Ġagree": 4260, "Ġhate": 4261, "Ġsof": 4262, "Ġtease": 4263, "Ġrecogn": 4264, "fast": 4265, "Ouch": 4266, "ik": 4267, "Ġserve": 4268, "Ġdoesn": 4269, "Ġbeef": 4270, "Ġmusician": 4271, "Ġmodel": 4272, "ef": 4273, "Ġadvice": 4274, "aspoon": 4275, "Ġcrib": 4276, "Ġsweetie": 4277, "lter": 4278, "Ġsofa": 4279, "Ġbookshe": 4280, "stri": 4281, "Ġcircles": 4282, "Ġbreakfast": 4283, "Ġblueberries": 4284, "Ġgas": 4285, "Ġfestival": 4286, "Ġgiraffe": 4287, "Ġseparate": 4288, "Ġshelter": 4289, "Ġtutor": 4290, "asis": 4291, "Ġairport": 4292, "Ġolive": 4293, "Ġbookshelf": 4294, "Ġrail": 4295, "Ġfrogs": 4296, "Ġteaspoon": 4297, "Ġjunk": 4298, "Ġreverse": 4299, "Ġriding": 4300, "Ġdrain": 4301, "Ġpleased": 4302, "ĠMrs": 4303, "Ġwipe": 4304, "Ġahead": 4305, "Ġsoil": 4306, "Ġpainter": 4307, "Ġknob": 4308, "Ġoasis": 4309, "ĠTeddy": 4310, "ummer": 4311, "Ġrescue": 4312, "Ġleaving": 4313, "Ġpeeked": 4314, "Ġlumber": 4315, "Ġpoked": 4316, "Ġsqueeze": 4317, "Ġchance": 4318, "Ġtrains": 4319, "Ġslipp": 4320, "Ġextra": 4321, "Ġrefused": 4322, "rmomet": 4323, "res": 4324, "Ġquiz": 4325, "Ġins": 4326, "Ġpage": 4327, "Ġbirdc": 4328, "ĠDolly": 4329, "Ġrules": 4330, "Ġwinter": 4331, "Ġpoint": 4332, "Ġhappens": 4333, "Ġsounded": 4334, "Ġdisappear": 4335, "rmometer": 4336, "Ġdancer": 4337, "Ġbirdcage": 4338, "ĠGrandpa": 4339, "Ġlic": 4340, "Ġtheater": 4341, "Ġwaste": 4342, "Ġweather": 4343, "Ġostri": 4344, "Ġswung": 4345, "Ġcarrying": 4346, "Ġinvite": 4347, "Ġgoal": 4348, "Daisy": 4349, "Ġreef": 4350, "ience": 4351, "Ġtrade": 4352, "ĠPandy": 4353, "Ġcliff": 4354, "iform": 4355, "angu": 4356, "Ġlawn": 4357, "Ġuniform": 4358, "Ġaccept": 4359, "Ġleaned": 4360, "ola": 4361, "Ġadmire": 4362, "Ġaccidentally": 4363, "Ġstom": 4364, "Ġfort": 4365, "Ġlangu": 4366, "riger": 4367, "rigerator": 4368, "Ġpastel": 4369, "bbles": 4370, "Ġtwir": 4371, "Ġbet": 4372, "!\".": 4373, "Ġrefrigerator": 4374, "Ġpeek": 4375, "render": 4376, "Ġblinked": 4377, "Ġsuff": 4378, "Ġpanda": 4379, "Ġdreaming": 4380, "Ġstarts": 4381, "na": 4382, "Ġanywhere": 4383, "ĠLee": 4384, "Ġimagined": 4385, "Ġremove": 4386, "night": 4387, "ium": 4388, "Ġclassroom": 4389, "Ġceiling": 4390, "Ġcaring": 4391, "Ġshower": 4392, "aked": 4393, "Ġlicense": 4394, "Ġgrand": 4395, "Ġstable": 4396, "Ġthermometer": 4397, "Ġmissing": 4398, "astic": 4399, "Ġmonkeys": 4400, "Ġsummer": 4401, "Ġwarned": 4402, "ĠWhere": 4403, "Ġbrick": 4404, "Ġabove": 4405, "Ġcudd": 4406, "ected": 4407, "Ġlabel": 4408, "Ġproblems": 4409, "Ġapron": 4410, "Ġchasing": 4411, "amber": 4412, "Ġsent": 4413, "Ġlawy": 4414, "Ġlid": 4415, "med": 4416, "Ġrespectful": 4417, "iture": 4418, "urniture": 4419, "Ġzoomed": 4420, "uggage": 4421, "Ġbent": 4422, "Ġprevent": 4423, "Ġfrowned": 4424, "Ġfurniture": 4425, "Ġpages": 4426, "Ġsunset": 4427, "Ġostrich": 4428, "Ġmistakes": 4429, "Ġwindows": 4430, "ison": 4431, "Ġluggage": 4432, "Ġsuggested": 4433, "ations": 4434, "low": 4435, "Ġgrape": 4436, "Ġribbon": 4437, "Ġwine": 4438, "ĠCl": 4439, "Ġjail": 4440, "Ġolder": 4441, "Ġshouts": 4442, "ĠCo": 4443, "Ġwigg": 4444, "ucture": 4445, "Ġstructure": 4446, "Ġspoil": 4447, "Ġlions": 4448, "Ġchamber": 4449, "eor": 4450, "Ġfixing": 4451, "Ġfinds": 4452, "Ġfought": 4453, "Ġdelay": 4454, "Ġsearching": 4455, "Ġhanded": 4456, "Did": 4457, "Ġunite": 4458, "Ġlawyer": 4459, "Ġmeeting": 4460, "Ġpair": 4461, "Ġbrightly": 4462, "Ġsurprises": 4463, "Ġchoice": 4464, "ĠEllie": 4465, "Ġart": 4466, "adium": 4467, "Ġfavour": 4468, "eterin": 4469, "eterinarian": 4470, "Ġstadium": 4471, "ĠUn": 4472, "Ch": 4473, "Ġproudly": 4474, "Ġveterinarian": 4475, "Ġslip": 4476, "rod": 4477, "iki": 4478, "Ġchairs": 4479, "vet": 4480, "ĠBoun": 4481, "Ġsadly": 4482, "Ġincre": 4483, "ĠSpe": 4484, "Ġberry": 4485, "ĠBow": 4486, "Ġpuddles": 4487, "ĠCarl": 4488, "Ġintrod": 4489, "Ġranch": 4490, "veal": 4491, "Ġcur": 4492, "Ġfavourite": 4493, "Ġargue": 4494, "ĠV": 4495, "Your": 4496, "Ġadmired": 4497, "Ġgrabs": 4498, "Ġhuman": 4499, "Ġrac": 4500, "Ġexcitedly": 4501, "Ġsteam": 4502, "mend": 4503, "Ġinf": 4504, "eorge": 4505, "thank": 4506, "Ġsaving": 4507, "sity": 4508, "Ġpushing": 4509, "Ġyield": 4510, "ĠHel": 4511, "Ġreveal": 4512, "alley": 4513, "olog": 4514, "Ġreminded": 4515, "ommend": 4516, "Ġleak": 4517, "Ġmall": 4518, "aul": 4519, "ĠRed": 4520, "Ġsurrender": 4521, "Ġrecommend": 4522, "Ġappl": 4523, "Ġweap": 4524, "cuss": 4525, "Ġregret": 4526, "Ġharb": 4527, "Ġmineral": 4528, "Ġvalley": 4529, "Ġmatches": 4530, "Ġforgave": 4531, "Ġputting": 4532, "Ġevening": 4533, "elcome": 4534, "Ġsneezed": 4535, "Ġaw": 4536, "ecause": 4537, "Ġrushed": 4538, "Ġspade": 4539, "Ġapolog": 4540, "Ġpup": 4541, "Ġdiscuss": 4542, "ĠBuzzy": 4543, "Ġignore": 4544, "Ġlanguage": 4545, "ĠBig": 4546, "Ġplates": 4547, "Ġprepare": 4548, "Ġcountry": 4549, "Ġpulls": 4550, "Ġplastic": 4551, "ĠBill": 4552, "Ġsniffed": 4553, "ĠJazz": 4554, "Ġharbor": 4555, "Ġshovel": 4556, "Ġfloat": 4557, "Ġreplace": 4558, "Ġmeas": 4559, "Ġsupply": 4560, "Ġraise": 4561, "Ġfre": 4562, "ĠNext": 4563, "Ġstrip": 4564, "Ġdoors": 4565, "Ġcared": 4566, "Ġsocks": 4567, "Ġrestore": 4568, "Ġmystery": 4569, "Ġlives": 4570, "Ġsticker": 4571, "Ġsudden": 4572, "Ġkinds": 4573, "ricane": 4574, "Ġslippery": 4575, "Ġplayer": 4576, "ari": 4577, "ĠOw": 4578, "ero": 4579, "Ġpanic": 4580, "iday": 4581, "hero": 4582, "Ġhoping": 4583, "Ġshone": 4584, "lex": 4585, "Ġsuperhero": 4586, "Ġbeg": 4587, "ĠBinky": 4588, "ĠMike": 4589, "Ġdelighted": 4590, "Ġgro": 4591, "aud": 4592, "Yay": 4593, "chan": 4594, "Ġchickens": 4595, "Ġcolourful": 4596, "Ġbreat": 4597, "Ġrained": 4598, "Ġshoulder": 4599, "ĠAlice": 4600, "Ġclaw": 4601, "Yuck": 4602, "Ġsoftly": 4603, "Ġhol": 4604, "ĠBubbles": 4605, "Ġholiday": 4606, "Ġport": 4607, "rise": 4608, "ĠâĢ": 4609, "Grandma": 4610, "icer": 4611, "oof": 4612, "Ġbarks": 4613, "Ġplanes": 4614, "Mary": 4615, "Ġthrowing": 4616, "ason": 4617, "Ġbend": 4618, "ĠFreddy": 4619, "Ġshakes": 4620, "Ġkneel": 4621, "Ġended": 4622, "Ġshivering": 4623, "Ġpushes": 4624, "Ġinfant": 4625, "Ġsunrise": 4626, "Ġfresh": 4627, "Ġthanks": 4628, "ĠOlive": 4629, "imed": 4630, "wards": 4631, "Ġtip": 4632, "Ġpoints": 4633, "Ġsuffer": 4634, "Ġfreeze": 4635, "Ġkeeping": 4636, "Ġcopper": 4637, "ĠSpeedy": 4638, "ĠWould": 4639, "Ġgiggle": 4640, "ĠPat": 4641, "Ġsmells": 4642, "Ġdear": 4643, "chanic": 4644, "cast": 4645, "Ġprovide": 4646, "Ġcherry": 4647, "Ġenter": 4648, "Ġdishes": 4649, "Ġhurricane": 4650, "ĠEnd": 4651, "Ġapplaud": 4652, "Next": 4653, "Ġmeowed": 4654, "Ġheads": 4655, "Ġunh": 4656, "cond": 4657, "ince": 4658, "Ġmass": 4659, "Ġmechanic": 4660, "Ġsandcast": 4661, "Ġbrighter": 4662, "Ġsecond": 4663, "Ġthumb": 4664, "Ġmenu": 4665, "Ġletting": 4666, "Ġlaught": 4667, "Ġweapon": 4668, "Ġevent": 4669, "Ġwre": 4670, "Ġx": 4671, "Ġsprayed": 4672, "Ġlaughter": 4673, "Ġfeelings": 4674, "Ġclapping": 4675, "Will": 4676, "Ġcastles": 4677, "ement": 4678, "ĠOr": 4679, "ophie": 4680, "Ġsplashing": 4681, "acked": 4682, "icky": 4683, "cer": 4684, "apping": 4685, "ĠFl": 4686, "Ġnavy": 4687, "Ġscore": 4688, "Ġdem": 4689, "Ġsticky": 4690, "Ġrooms": 4691, "Ġflies": 4692, "Ġuniverse": 4693, "igi": 4694, "Ġrow": 4695, "Ġunhappy": 4696, "ĠDave": 4697, "Ġgreedy": 4698, "Ġdare": 4699, "Ġalive": 4700, "Ġener": 4701, "Ġbreaks": 4702, "Ġcourage": 4703, "Ġinvit": 4704, "Ġrepeat": 4705, "Ready": 4706, "Ġdemand": 4707, "Ġtrusted": 4708, "Ġsomewhere": 4709, "arlie": 4710, "Lisa": 4711, "erc": 4712, "Ġprune": 4713, "ĠY": 4714, "year": 4715, "Ġskill": 4716, "Ġparts": 4717, "Ġwreck": 4718, "oe": 4719, "Ġeaten": 4720, "Ġexamine": 4721, "bles": 4722, "All": 4723, "Ġmention": 4724, "enry": 4725, "Ġraining": 4726, "ĠHelp": 4727, "Buddy": 4728, "Ġthrows": 4729, "Ġjogged": 4730, "Ġstarting": 4731, "quest": 4732, "Ġrush": 4733, "Ġpoison": 4734, "Ġcontent": 4735, "Ġvac": 4736, "heart": 4737, "ĠZoomy": 4738, "Ġsport": 4739, "Ġsigh": 4740, "Ġpirates": 4741, "Emma": 4742, "ĠKiki": 4743, "Ġstud": 4744, "Ġflapped": 4745, "Qu": 4746, "Ġdrops": 4747, "Ġchirp": 4748, "Ġsparkled": 4749, "Ġstreng": 4750, "Ġgiven": 4751, "Ann": 4752, "Ġsteel": 4753, "Ġbumped": 4754, "Ġyawned": 4755, "Ġscold": 4756, "Ġtoe": 4757, "Ġmyself": 4758, "ĠJohnny": 4759, "Mark": 4760, "Ġshrugged": 4761, "Ġrequest": 4762, "Ġequ": 4763, "Ġcoats": 4764, "Ġstrength": 4765, "Ġexerc": 4766, "Ġpunish": 4767, "Ġsnugg": 4768, "Ġpaid": 4769, "Ġuniversity": 4770, "Ġpigs": 4771, "Ġscratch": 4772, "Ġtracks": 4773, "Ġprayed": 4774, "Ġcrossed": 4775, "Ġflood": 4776, "Ġupstairs": 4777, "Ġimpressed": 4778, "ĠRu": 4779, "Ġbouncing": 4780, "Ġsqueezed": 4781, "Ġwarn": 4782, "Alice": 4783, "Ġbadly": 4784, "Ġexpect": 4785, "ges": 4786, "Ġrabbits": 4787, "Ġleather": 4788, "Ġminute": 4789, "Ġnation": 4790, "Ġnews": 4791, "Ġtide": 4792, "ĠTed": 4793, "Ġclaws": 4794, "Sh": 4795, "Ġsweetheart": 4796, "Ġbears": 4797, "Ġbuzz": 4798, "ĠSm": 4799, "yth": 4800, "Ġstrawberries": 4801, "Ġheat": 4802, "Ġvacation": 4803, "ĠMummy": 4804, "Ġsandcastle": 4805, "Ġsettle": 4806, "Ġobserve": 4807, "Ġexplored": 4808, "ythm": 4809, "ĠLilly": 4810, "Ġyawn": 4811, "Ġbelieved": 4812, "Ġhist": 4813, "ĠLola": 4814, "Ġnetwork": 4815, "ĠSque": 4816, "inking": 4817, "ially": 4818, "Daddy": 4819, "Ġhistory": 4820, "ĠHoppy": 4821, "Ġhorses": 4822, "mare": 4823, "Ġchecked": 4824, "Ġtour": 4825, "ĠUnder": 4826, "Ġcheek": 4827, "ĠMandy": 4828, "Ġplaced": 4829, "Ġeasily": 4830, "Ġoffer": 4831, "Ġspots": 4832, "spec": 4833, "Ġblueberry": 4834, "Ġenergy": 4835, "ween": 4836, "Ġsnowball": 4837, "men": 4838, "otten": 4839, "ĠBee": 4840, "Ġimagination": 4841, "Ġbetween": 4842, "ĠGigi": 4843, "izes": 4844, "specially": 4845, "Ġdaisy": 4846, "Ġstomach": 4847, "Ġwaving": 4848, "Ġvroom": 4849, "reeze": 4850, "reat": 4851, "Ġmassage": 4852, "Ġsoak": 4853, "Ġbaking": 4854, "Ġsafari": 4855, "Ġblowing": 4856, "Ġprunes": 4857, "Ġrhythm": 4858, "Ġstair": 4859, "Ġinsisted": 4860, "quake": 4861, "Ġentered": 4862, "Before": 4863, "Ġwriting": 4864, "Ġbeauty": 4865, "Ġnightmare": 4866, "Ġbother": 4867, "Ġpalm": 4868, "Ġtwisted": 4869, "Ġpoppy": 4870, "Ġscoop": 4871, "Ġing": 4872, "ipment": 4873, "Ġhills": 4874, "Ġbrain": 4875, "noon": 4876, "Ġafternoon": 4877, "Ġequipment": 4878, "hest": 4879, "Ġespecially": 4880, "Ġsir": 4881, "Ġingred": 4882, "apa": 4883, "Ġnobody": 4884, "Ġingredient": 4885, "Ġburned": 4886, "ĠSee": 4887, "Ġignored": 4888, "xygen": 4889, "Ġearthquake": 4890, "ĠSnowy": 4891, "Ġcalls": 4892, "Ġpad": 4893, "ĠFox": 4894, "Ġsty": 4895, "Ġsew": 4896, "mble": 4897, "Ġtug": 4898, "Ġlear": 4899, "Ġhearts": 4900, "Ġlearnt": 4901, "Ġlemonade": 4902, "isty": 4903, "illie": 4904, "Ġincrease": 4905, "Jenny": 4906, "ffic": 4907, "Ġmailman": 4908, "Ġgaz": 4909, "Ġwhistled": 4910, "ĠSk": 4911, "Ġshopkeeper": 4912, "Ġbackpack": 4913, "Fred": 4914, "Ġpermit": 4915, "Ġtremble": 4916, "Ġpedal": 4917, "Ġlemons": 4918, "Ġyucky": 4919, "anges": 4920, "Ġmoves": 4921, "Ġintroduce": 4922, "Ġcrash": 4923, "edn": 4924, "Ġbeans": 4925, "ednesday": 4926, "Ġfloated": 4927, "ittens": 4928, "Ġtraffic": 4929, "Welcome": 4930, "Ġslap": 4931, "Ġplanned": 4932, "Ġstrike": 4933, "Ġracing": 4934, "Ġinclude": 4935, "resses": 4936, "Ġwags": 4937, "laimed": 4938, "Ġwisdom": 4939, "Ġpur": 4940, "Ġprice": 4941, "ĠLucky": 4942, "Ġluck": 4943, "ĠFinny": 4944, "Ġfollowing": 4945, "ĠGeorge": 4946, "ecting": 4947, "Ġpitch": 4948, "ĠElly": 4949, "Ġbelow": 4950, "Ġmama": 4951, "ĠHave": 4952, "Le": 4953, "Ġweight": 4954, "Ġexclaimed": 4955, "Ġburied": 4956, "Ġfollows": 4957, "house": 4958, "Ġingredients": 4959, "tain": 4960, "Ġcomf": 4961, "Ġrecognize": 4962, "Ġfurt": 4963, "Ġcandles": 4964, "emember": 4965, "Mimi": 4966, "riage": 4967, "ĠWednesday": 4968, "ĠSu": 4969, "ĠAlex": 4970, "eration": 4971, "ores": 4972, "unday": 4973, "Ġapart": 4974, "uct": 4975, "Ġmarbles": 4976, "Ġteaching": 4977, "Ġgrowled": 4978, "Ġhopes": 4979, "ĠWho": 4980, "Ġconf": 4981, "Ġfolded": 4982, "ĠFinn": 4983, "ĠPaul": 4984, "Ġclosely": 4985, "Ġheel": 4986, "Ġencourage": 4987, "ĠSunday": 4988, "ĠOwl": 4989, "Ġzigzag": 4990, "Ġpulling": 4991, "Ġchewed": 4992, "Ġbouncy": 4993, "Ġdigg": 4994, "Ġfurther": 4995, "Ġdigging": 4996, "Woof": 4997, "Ġwinning": 4998, "With": 4999, "Ġimage": 5000, "Ġdresses": 5001, "Ġpuzzles": 5002, "rec": 5003, "Ġshouting": 5004, "cery": 5005, "Ġgrocery": 5006, "Ġpeanuts": 5007, "ĠDog": 5008, "look": 5009, "Ġchores": 5010, "Ġtwisty": 5011, "Ġwhisper": 5012, "bbing": 5013, "Ġscrat": 5014, "ĠIs": 5015, "ĠFroggy": 5016, "Ġcape": 5017, "Ġspike": 5018, "Ġsnail": 5019, "Ġworms": 5020, "hood": 5021, "Ġdeeper": 5022, "Ġacorns": 5023, "Ġurge": 5024, "Ġexercise": 5025, "Ġexper": 5026, "ĠWhenever": 5027, "ĠSqueaky": 5028, "ĠTilly": 5029, "ĠGrace": 5030, "ifi": 5031, "Ġplanted": 5032, "ecture": 5033, "Ġattention": 5034, "Ġcub": 5035, "Ġhon": 5036, "ĠDanny": 5037, "Ġquite": 5038, "Ġagre": 5039, "Ġoperation": 5040, "Ġunderground": 5041, "Ġcreatures": 5042, "ĠMittens": 5043, "Everyone": 5044, "Ġlecture": 5045, "Ġblood": 5046, "Ġsimp": 5047, "oral": 5048, "ddy": 5049, "Ġhurting": 5050, "Ġvanished": 5051, "Ġstruggle": 5052, "Ġwashing": 5053, "Ġinvitation": 5054, "Ġgifts": 5055, "Ġdressed": 5056, "Ġsolved": 5057, "gie": 5058, "ĠSharing": 5059, "Ġlicks": 5060, "Ġsnuggled": 5061, "ippy": 5062, "Ġmarriage": 5063, "Ġble": 5064, "Ġquietly": 5065, "Ġwarning": 5066, "Ġbreathe": 5067, "Ġelephants": 5068, "Ġjazz": 5069, "ĠSophie": 5070, "reci": 5071, "Ġfallen": 5072, "Ġsizes": 5073, "Ġdried": 5074, "ories": 5075, "Ġneighbour": 5076, "Ġlandscape": 5077, "uesday": 5078, "Ġmice": 5079, "Ġsprink": 5080, "ĠâĢĵ": 5081, "ĠBounce": 5082, "Ġeagerly": 5083, "Ġsailing": 5084, "Ġappreci": 5085, "ĠCoco": 5086, "Ġcounter": 5087, "Ġpaused": 5088, "ĠJoey": 5089, "ĠPenny": 5090, "Ġoxygen": 5091, "ips": 5092, "looking": 5093, "ĠGood": 5094, "Ġworth": 5095, "ĠRock": 5096, "Because": 5097, "Not": 5098, "Ġshined": 5099, "Ġrelease": 5100, "Ġreaches": 5101, "pted": 5102, "Ġbalan": 5103, "ĠZara": 5104, "Ġoh": 5105, "isses": 5106, "Ġstyle": 5107, "Ġbricks": 5108, "Ġkisses": 5109, "Ġplays": 5110, "ĠTuesday": 5111, "Ġglo": 5112, "Ġideas": 5113, "iggly": 5114, "sed": 5115, "Ġinst": 5116, "Bella": 5117, "Ġwob": 5118, "Ġfireworks": 5119, "ucked": 5120, "Ġseeing": 5121, "Ġflap": 5122, "right": 5123, "Ġtomatoes": 5124, "Ġaccepted": 5125, "ĠPip": 5126, "Today": 5127, "Ġtremb": 5128, "These": 5129, "ĠRos": 5130, "Ġmemory": 5131, "Ġblink": 5132, "Ġmuddy": 5133, "Ġmarried": 5134, "ĠCharlie": 5135, "Ġwagging": 5136, "ops": 5137, "Ġwandered": 5138, "Ġexit": 5139, "Remy": 5140, "Ġcaptain": 5141, "unately": 5142, "Ġfash": 5143, "ĠAnnie": 5144, "ipping": 5145, "Ġgloves": 5146, "Ġduring": 5147, "raged": 5148, "Ġpetals": 5149, "Ġreceive": 5150, "ĠEverything": 5151, "ĠEventually": 5152, "etch": 5153, "Ġwatered": 5154, "Ġpillows": 5155, "Ġresp": 5156, "Ġweb": 5157, "ĠPinky": 5158, "Ġmanage": 5159, "Ġbrings": 5160, "Ġcakes": 5161, "ived": 5162, "Ġpinched": 5163, "Ġdestroyed": 5164, "nce": 5165, "Ġprinter": 5166, "Ġvanish": 5167, "Ġallow": 5168, "Ġfashion": 5169, "Ġhadn": 5170, "Surpr": 5171, "Ġtreasures": 5172, "ups": 5173, "Ġworse": 5174, "ĠRo": 5175, "ĠPapa": 5176, "ĠBluey": 5177, "Ġscattered": 5178, "Ġhits": 5179, "Ġvel": 5180, "Ġappear": 5181, "do": 5182, "Ġcatching": 5183, "Ġvelvet": 5184, "ĠFifi": 5185, "Ġsorts": 5186, "Ġdisagree": 5187, "xu": 5188, "Ġmemories": 5189, "Ġscolded": 5190, "Ġbur": 5191, "Ġoranges": 5192, "Ġbones": 5193, "Ġseats": 5194, "Ġhers": 5195, "Ġsnapped": 5196, "Ġsigns": 5197, "Ġsits": 5198, "Ġrang": 5199, "Ġpears": 5200, "Ġgazed": 5201, "Ġraised": 5202, "Bl": 5203, "uxu": 5204, "Ġsi": 5205, "Ġprints": 5206, "ĠGod": 5207, "Ġzipped": 5208, "ĠMaria": 5209, "Ġfro": 5210, "Ġshot": 5211, "Ġsliding": 5212, "Ġpies": 5213, "Ġclimbs": 5214, "Ġeasier": 5215, "Ġskills": 5216, "ccer": 5217, "ssible": 5218, "Ġforgotten": 5219, "Ġtwirled": 5220, "Ġblankets": 5221, "ester": 5222, "Ġdifference": 5223, "Ġbaked": 5224, "esterday": 5225, "orted": 5226, "Yum": 5227, "aggie": 5228, "ising": 5229, "Ġcutting": 5230, "Ġgolden": 5231, "Ġluxu": 5232, "Ġkitty": 5233, "Ġseason": 5234, "ĠTw": 5235, "Ġsoccer": 5236, "Ġnowhere": 5237, "Ġdared": 5238, "Ġcrow": 5239, "ĠHenry": 5240, "Ġbites": 5241, "ah": 5242, "Ġcelebrated": 5243, "Ġlung": 5244, "ĠHarry": 5245, "anny": 5246, "Ġsorting": 5247, "Ġstraight": 5248, "sters": 5249, "choo": 5250, "chie": 5251, "Ġunlocked": 5252, "Ġbleed": 5253, "aped": 5254, "Ġwelcomed": 5255, "Ġcollected": 5256, "ding": 5257, "Ġvisited": 5258, "Ġours": 5259, "Ġspoons": 5260, "Ġjogging": 5261, "Ġstitch": 5262, "Surprise": 5263, "ĠSpark": 5264, "medi": 5265, "Ġemer": 5266, "mediately": 5267, "Ġtong": 5268, "Ġisn": 5269, "Ġtrave": 5270, "Ġsince": 5271, "Ġwinner": 5272, "Ġprett": 5273, "umble": 5274, "Ġruin": 5275, "Ok": 5276, "Ġattached": 5277, "ĠTony": 5278, "Moral": 5279, "Ġweeping": 5280, "Ġmarching": 5281, "ĠEach": 5282, "Ġzero": 5283, "Ġsimple": 5284, "Ġshouldn": 5285, "Ġluxury": 5286, "Ġguessed": 5287, "Ġstuffed": 5288, "mm": 5289, "Ġselling": 5290, "Ġfamil": 5291, "Ġpets": 5292, "ction": 5293, "Ġcreated": 5294, "Ġwaist": 5295, "Ġurged": 5296, "Ġbowed": 5297, "Ġfloating": 5298, "ĠWiggly": 5299, "ĠSmith": 5300, "Ġkingdom": 5301, "Ġbye": 5302, "ĠKing": 5303, "Ġolives": 5304, "Ġkicking": 5305, "Ġvict": 5306, "Ġpunished": 5307, "Ġgrant": 5308, "ĠBaby": 5309, "Ġtoes": 5310, "ĠLiz": 5311, "sit": 5312, "Ġmuscles": 5313, "ĠRosie": 5314, "Ġmelted": 5315, "Ġbeds": 5316, "Ġjewels": 5317, "Ġgrin": 5318, "Ġunderstanding": 5319, "ĠSandy": 5320, "Ġcollection": 5321, "Goodbye": 5322, "Ġmeasured": 5323, "Ġtore": 5324, "Ġslice": 5325, "aker": 5326, "omeday": 5327, "Ġcras": 5328, "va": 5329, "'ve": 5330, "Ġacted": 5331, "iers": 5332, "Ġtrapped": 5333, "Ġlined": 5334, "fortunately": 5335, "Ġencouraged": 5336, "ĠBefore": 5337, "ents": 5338, "ĠWally": 5339, "Ġwest": 5340, "Ġwaffles": 5341, "rin": 5342, "Ġreceived": 5343, "eath": 5344, "Ġpatterns": 5345, "Ġmeow": 5346, "Ġbrus": 5347, "ino": 5348, "Ġmouths": 5349, "ring": 5350, "ĠKate": 5351, "kins": 5352, "Ġbang": 5353, "Ġprinted": 5354, "Ġpeaches": 5355, "aded": 5356, "une": 5357, "Ġbreeze": 5358, "Meow": 5359, "Ġsomeday": 5360, "Ġpotatoes": 5361, "Ġsoldiers": 5362, "ĠMillie": 5363, "umes": 5364, "Ġexperience": 5365, "Ġshed": 5366, "Ġpupil": 5367, "Ġdrinks": 5368, "Ġpresents": 5369, "..": 5370, "ĠRuby": 5371, "Ġfiref": 5372, "ĠTuna": 5373, "Ġsurround": 5374, "Ġnone": 5375, "eep": 5376, "Ġvoices": 5377, "Ġdrinking": 5378, "eve": 5379, "osed": 5380, "ishing": 5381, "Ġrelaxed": 5382, "Ġbreaking": 5383, "Ġtongue": 5384, "ĠUncle": 5385, "Ġhurried": 5386, "cus": 5387, "Ġtwink": 5388, "Ġvictory": 5389, "Ġpaints": 5390, "Ġflat": 5391, "Ġcostumes": 5392, "ission": 5393, "Ġwhistling": 5394, "Ġmentioned": 5395, "Ġdisagreed": 5396, "Ġbegged": 5397, "Ġteasing": 5398, "Ġpearl": 5399, "Ġsip": 5400, "Ġfetch": 5401, "Ġpermission": 5402, "Ġstro": 5403, "Ġsix": 5404, "akes": 5405, "vest": 5406, "ĠThese": 5407, "Ġappro": 5408, "Leo": 5409, "Ġesc": 5410, "Ġhighest": 5411, "Ġskipping": 5412, "Ġfishing": 5413, "Ġsorted": 5414, "ĠMay": 5415, "Ġringing": 5416, "Ġwatches": 5417, "Ġtonight": 5418, "Ġpra": 5419, "Ġopin": 5420, "ship": 5421, "icing": 5422, "ĠBo": 5423, "Ġlets": 5424, "ĠQu": 5425, "Ġimmediately": 5426, "Ġperfectly": 5427, "Ġshadows": 5428, "Ġspit": 5429, "Ġwarmth": 5430, "Ġremained": 5431, "Ġherbs": 5432, "ther": 5433, "walk": 5434, "irring": 5435, "ĠIts": 5436, "Bobby": 5437, "ĠChe": 5438, "Ġsneak": 5439, "Jen": 5440, "Ġlips": 5441, "Ġkneeled": 5442, "Blue": 5443, "Ġcolours": 5444, "\",": 5445, "utter": 5446, "Ġsidewalk": 5447, "Ġcontest": 5448, "Ġcartoons": 5449, "Ha": 5450, "ĠToto": 5451, "ĠFollow": 5452, "Ġstamps": 5453, "Ġago": 5454, "oved": 5455, "Ġeast": 5456, "Ġstrang": 5457, "Ġheaded": 5458, "ĠBoo": 5459, "ĠGr": 5460, "Ġworks": 5461, "Ġladyb": 5462, "Ġfed": 5463, "Ġsupposed": 5464, "Ġlick": 5465, "Ġroots": 5466, "Ġcrunch": 5467, "Ġmixing": 5468, "Ġdecorations": 5469, "Ġemergen": 5470, "Ġknown": 5471, "Ġmelting": 5472, "ĠSuzy": 5473, "Ġinstr": 5474, "Ġlily": 5475, "Ġrested": 5476, "Ġlines": 5477, "Mandy": 5478, "Ġlaid": 5479, "ĠAb": 5480, "ĠJul": 5481, "ety": 5482, "Ġstudied": 5483, "sing": 5484, "Ġwiggle": 5485, "Ġsucceeded": 5486, "Ġsetting": 5487, "ĠSlow": 5488, "Ġcones": 5489, "Ġshock": 5490, "Ġstrangers": 5491, "ĠRocky": 5492, "Ġlands": 5493, "Ġbrid": 5494, "Ġtwigs": 5495, "Really": 5496, "Ġgirls": 5497, "Ġtheirs": 5498, "!\",": 5499, "Ġfields": 5500, "Ġordered": 5501, "Ġstirring": 5502, "Ġscreams": 5503, "ĠDr": 5504, "boo": 5505, "Ġrul": 5506, "Ġalright": 5507, "Ġmoments": 5508, "Ġstealing": 5509, "Ġmister": 5510, "ded": 5511, "avid": 5512, "Andy": 5513, "Ġbravely": 5514, "ĠBoth": 5515, "!'": 5516, "Ġplaytime": 5517, "Ġtucked": 5518, "Ġinvest": 5519, "Ġscratched": 5520, "Ġripped": 5521, "Ġresting": 5522, "ĠClara": 5523, "Ġburning": 5524, "Ġinvestig": 5525, "ishes": 5526, "Ġbridges": 5527, "Ġtext": 5528, "Bird": 5529, "ĠChicky": 5530, "please": 5531, "Sammy": 5532, "Ġsettled": 5533, "abies": 5534, "Ġofficer": 5535, "Ġmatched": 5536, "Ġtexture": 5537, "Ġachie": 5538, "Ġwaits": 5539, "Happy": 5540, "ĠSky": 5541, "Ġturning": 5542, "Peter": 5543, "ored": 5544, "Ġtrembling": 5545, "isten": 5546, "atie": 5547, "ids": 5548, "Ġnails": 5549, "ĠJames": 5550, "Ġmuffins": 5551, "ĠSomeone": 5552, "Ġpiles": 5553, "Ġescaped": 5554, "Ġinvestigate": 5555, "Ġbroom": 5556, "Ġsore": 5557, "Ġladybug": 5558, "Ġadmir": 5559, "osity": 5560, "Ġbabies": 5561, "Ġsilence": 5562, "Ġsisters": 5563, "Ġthreat": 5564, "ĠPepper": 5565, "Ġappreciate": 5566, "Ġemergency": 5567, "Ġdads": 5568, "Ġslapped": 5569, "Ġarea": 5570, "ides": 5571, "Ġanswers": 5572, "Ġchewing": 5573, "Ġserved": 5574, "Ġimportance": 5575, "Ġsafety": 5576, "ĠHop": 5577, "Would": 5578, "izing": 5579, "Bu": 5580, "Ġkeys": 5581, "Boo": 5582, "Ġwiz": 5583, "Ġhen": 5584, "Ġpupp": 5585, "ĠLater": 5586, "Ġsparkle": 5587, "Ella": 5588, "Ġsoared": 5589, "Ġtouching": 5590, "allen": 5591, "Ġsings": 5592, "igail": 5593, "antly": 5594, "Momo": 5595, "bers": 5596, "Ġkeeps": 5597, "Ġchallen": 5598, "Ġamazement": 5599, "ĠDino": 5600, "Ġhesit": 5601, "Ġsoaked": 5602, "Ġtwin": 5603, "Ġdire": 5604, "Ġrevealed": 5605, "Ġitem": 5606, "Ġwrit": 5607, "anna": 5608, "zing": 5609, "achel": 5610, "ĠMe": 5611, "Ġfoods": 5612, "ĠZigzag": 5613, "Ġdinosaurs": 5614, "Ġrecorded": 5615, "Ġrides": 5616, "Ġtickle": 5617, "Ġinch": 5618, "Ġvet": 5619, "Ġtrips": 5620, "Ġcurled": 5621, "Ġwizard": 5622, "Ġglowed": 5623, "Ġquack": 5624, "ĠAn": 5625, "Mmm": 5626, "ĠFrog": 5627, "Ġhi": 5628, "Ġbeamed": 5629, "Ġwink": 5630, "Ġshopping": 5631, "Ġhated": 5632, "Ġwooden": 5633, "Ġeats": 5634, "ĠBug": 5635, "Eventually": 5636, "Ġpraised": 5637, "Ġstudying": 5638, "Ġcrawling": 5639, "Ġruler": 5640, "Ġguy": 5641, "Ġgust": 5642, "Ġbringing": 5643, "Ġbrushes": 5644, "ĠSomething": 5645, "Ġdownstairs": 5646, "Ġmittens": 5647, "Cat": 5648, "Ġspaceship": 5649, "Ġtastes": 5650, "Ġflav": 5651, "Ġnapping": 5652, "Ġshooting": 5653, "Ġmarks": 5654, "Ġcuddled": 5655, "hello": 5656, "plash": 5657, "ales": 5658, "aved": 5659, "Ġdot": 5660, "Ġsprinkles": 5661, "ĠMo": 5662, "Ġfamilies": 5663, "Ġcollecting": 5664, "Ġfut": 5665, "Ġmonsters": 5666, "ĠHappy": 5667, "ĠOut": 5668, "Ġmeasuring": 5669, "Ġfuture": 5670, "Ġthrill": 5671, "ĠFirst": 5672, "'.": 5673, "irts": 5674, "Ġresult": 5675, "Ġoat": 5676, "Ġapproached": 5677, "Ġcrunchy": 5678, "Jake": 5679, "act": 5680, "ĠRabbit": 5681, "Un": 5682, "Ġremem": 5683, "Ġbleeding": 5684, "Ġremembers": 5685, "Ġbeat": 5686, "Ġnicer": 5687, "Ġdisturbed": 5688, "Ġsneaky": 5689, "Ġleader": 5690, "Ġscaring": 5691, "ĠHope": 5692, "Ġpeel": 5693, "hind": 5694, "ĠNot": 5695, "Ġneighborhood": 5696, "Or": 5697, "Ġgrey": 5698, "Ġfiremen": 5699, "Ġnoon": 5700, "Emily": 5701, "ĠStar": 5702, "Ġmotion": 5703, "Ġapologized": 5704, "Ġweighed": 5705, "Ġpossible": 5706, "ĠDid": 5707, "Somet": 5708, "ues": 5709, "Cl": 5710, "Ġloose": 5711, "Ġtickets": 5712, "Ġnaps": 5713, "Ġpride": 5714, "Ġyouth": 5715, "Ġswims": 5716, "ĠHo": 5717, "Ġstrings": 5718, "ped": 5719, "Ġrecognized": 5720, "Ġgained": 5721, "Ġsiren": 5722, "Ġcrashed": 5723, "Ġpoking": 5724, "Ġwonders": 5725, "elvet": 5726, "Ġtricked": 5727, "cious": 5728, "ha": 5729, "fied": 5730, "Ġwanting": 5731, "Ġobe": 5732, "Ġdraws": 5733, "oming": 5734, ".'": 5735, "Ġworker": 5736, "ls": 5737, "Ġseesaw": 5738, "Ġopinion": 5739, "Ġzooming": 5740, "Ġprepared": 5741, "Ġscooped": 5742, "Ġgrinned": 5743, "unnies": 5744, "Ġyelling": 5745, "Ġpoems": 5746, "Ġhappiest": 5747, "Ġawe": 5748, "Ġdoggy": 5749, "ĠLizzy": 5750, "ĠSlowly": 5751, "Ġacting": 5752, "ĠBeep": 5753, "Ġsneaked": 5754, "Ġchef": 5755, "Ġeff": 5756, "ĠAlways": 5757, "Ġowned": 5758, "Ġrespons": 5759, "oys": 5760, "ena": 5761, "Ġknelt": 5762, "Ġanytime": 5763, "Ġpedals": 5764, "Ollie": 5765, "Ġbunnies": 5766, "Ġdecorated": 5767, "Ġstruck": 5768, "ided": 5769, "Ġagreement": 5770, "Ġsecrets": 5771, "Ġtallest": 5772, "Ġpause": 5773, "Ġhorns": 5774, "ĠSqu": 5775, "Ġfrost": 5776, "Ġobey": 5777, "riends": 5778, "ĠStop": 5779, "ogo": 5780, "Remember": 5781, "Ġbehaved": 5782, "Ġdecides": 5783, "Have": 5784, "ĠOnce": 5785, "Ġtugged": 5786, "lier": 5787, "zen": 5788, "Ġslim": 5789, "Ġsides": 5790, "Ġsparkling": 5791, "Ġkeeper": 5792, "Ġwoof": 5793, "Ġchirped": 5794, "ien": 5795, "Ġgoodnight": 5796, "Tr": 5797, "indy": 5798, "Ġrepeated": 5799, "mother": 5800, "Ġprecious": 5801, "ĠRay": 5802, "rs": 5803, "ud": 5804, "Ġclaps": 5805, "Ġcontain": 5806, "affes": 5807, "Ġourselves": 5808, "Ġsnowballs": 5809, "allow": 5810, "Ġgiraffes": 5811, "Ġkindly": 5812, "Ġbalancing": 5813, "Ġspending": 5814, "Ġwrites": 5815, "ays": 5816, "ppers": 5817, "omas": 5818, "Ġfrozen": 5819, "ĠLike": 5820, "Ġhissed": 5821, "Ġprop": 5822, "ĠSteve": 5823, "Ġfrosting": 5824, "First": 5825, "Ġeffort": 5826, "Ġstruggled": 5827, "Ġbuzzing": 5828, "Ġadmiring": 5829, "Ġrele": 5830, "Ġsweeties": 5831, "ĠVelvet": 5832, "iggy": 5833, "Ġslimy": 5834, "Ġbrushed": 5835, "Ġbloomed": 5836, "Ġpolished": 5837, "arth": 5838, "ĠZoe": 5839, "anted": 5840, "ĠAm": 5841, "ĠMaggie": 5842, "Susie": 5843, "Ġcomfy": 5844, "Ġstaying": 5845, "Ġboo": 5846, "Ducky": 5847, "Ġthrilled": 5848, "isdom": 5849, "Ġbeside": 5850, "Ġpockets": 5851, "Ġcomple": 5852, "Ġrocking": 5853, "urry": 5854, "Ġrubbing": 5855, "Ġearlier": 5856, "Ġeight": 5857, "Sp": 5858, "Ah": 5859, "ĠAunt": 5860, "Ġseems": 5861, "Ġrust": 5862, "Ġyesterday": 5863, "Ġtraveled": 5864, "ities": 5865, "Ġmachines": 5866, "Ġboom": 5867, "ĠKeep": 5868, "ĠStitch": 5869, "Ġfolding": 5870, "Ġradishes": 5871, "Ġzookeeper": 5872, "Ġcracked": 5873, "Ġhugging": 5874, "Ġloving": 5875, "Ġpebbles": 5876, "Ġopening": 5877, "Ġsurrounded": 5878, "Ġgaze": 5879, "Ġspraying": 5880, "Ġremoved": 5881, "Ġdemanded": 5882, "Ġpaintings": 5883, "Ġcuriosity": 5884, "oh": 5885, "amie": 5886, "Ġhardly": 5887, "ĠGreen": 5888, "Ġsting": 5889, "Ġhonk": 5890, "Ġpetted": 5891, "Ġcatches": 5892, "edding": 5893, "Ġcircus": 5894, "Ġstripes": 5895, "ĠRachel": 5896, "Ġloaded": 5897, "Ġmatching": 5898, "Ġpots": 5899, "Thanks": 5900, "ĠPippa": 5901, "Ġpowers": 5902, "Ġsplashes": 5903, "Sometimes": 5904, "ĠDavid": 5905, "Ġtoss": 5906, "Ġstare": 5907, "ĠBree": 5908, "Ġbelly": 5909, "ibb": 5910, "Ġapologize": 5911, "Ġwhatever": 5912, "Yummy": 5913, "ern": 5914, "Ġribbons": 5915, "Ġcomforted": 5916, "Ġrocked": 5917, "Ġexpected": 5918, "ĠJoy": 5919, "Ġstruggling": 5920, "ĠBirdie": 5921, "Ġdeser": 5922, "Ġdecision": 5923, "Ġsteep": 5924, "wh": 5925, "Ġneighbors": 5926, "Ġgranted": 5927, "Ġprotected": 5928, "During": 5929, "Ġsmiley": 5930, "Ġchases": 5931, "ĠMilly": 5932, "Ġpurred": 5933, "Ġdiving": 5934, "Ġeagle": 5935, "ana": 5936, "Whiskers": 5937, "Ġsadness": 5938, "Ġcrumb": 5939, "ĠFrank": 5940, "Ġroads": 5941, "Ġlied": 5942, "Ġorganizing": 5943, "Ġscru": 5944, "Ġheroes": 5945, "ĠMat": 5946, "Ex": 5947, "Ġdipped": 5948, "Ġargued": 5949, "Ġgoals": 5950, "Ġsafer": 5951, "lowers": 5952, "Ġsunlight": 5953, "Ġpastels": 5954, "ĠBouncy": 5955, "ĠWater": 5956, "Ġdiscovery": 5957, "Ġtim": 5958, "Ro": 5959, "Ġvillag": 5960, "Ġdragons": 5961, "use": 5962, "Ġpeered": 5963, "Ġbuildings": 5964, "Ġbeard": 5965, "ĠAbigail": 5966, "loe": 5967, "Ġparties": 5968, "ĠRobby": 5969, "Ġbuckets": 5970, "Rex": 5971, "Ġwedding": 5972, "Ġann": 5973, "Ġflutter": 5974, "Ġpolishing": 5975, "Ġplanets": 5976, "Ġfasc": 5977, "ĠWatch": 5978, "Ġcrabs": 5979, "Ġsausages": 5980, "Ġreleased": 5981, "Ġtails": 5982, "ĠGogo": 5983, "ira": 5984, "ĠChr": 5985, "Ġargu": 5986, "uke": 5987, "Ġwiggled": 5988, "Ġcontro": 5989, "Ġsled": 5990, "ĠJu": 5991, "Ġclearing": 5992, "Ġteased": 5993, "Ġarguing": 5994, "ĠCar": 5995, "Ġroaring": 5996, "ĠRemember": 5997, "Ġbottles": 5998, "Ġdragged": 5999, "Ġgathering": 6000, "Ġairpl": 6001, "Ġpadd": 6002, "Ġshirts": 6003, "Ġwid": 6004, "Ġmovies": 6005, "Ġlimes": 6006, "Ġteaches": 6007, "ĠDare": 6008, "ĠJess": 6009, "joyed": 6010, "Ġspiders": 6011, "Ġactually": 6012, "Ġcontinue": 6013, "Ġsighs": 6014, "Ġoverjoyed": 6015, "Ġchallenge": 6016, "Ġcuddle": 6017, "Ġcubes": 6018, "Ġsmallest": 6019, "Ġsitu": 6020, "Ġsoaring": 6021, "Ġdrives": 6022, "Ġtalent": 6023, "Ġrefres": 6024, "Ġsparkles": 6025, "ĠSplash": 6026, "Ġrip": 6027, "ĠOlly": 6028, "Ġgrandmother": 6029, "Ġcuts": 6030, "Ġfascin": 6031, "Ġmane": 6032, "umm": 6033, "Ġpeppers": 6034, "Ġpouring": 6035, "Ġpretends": 6036, "Ġbank": 6037, "Ġshivered": 6038, "Ġwondering": 6039, "Ġquarreling": 6040, "ten": 6041, "Ġdusty": 6042, "Ġstretching": 6043, "Ġweeks": 6044, "Ġwherever": 6045, "Ġvillagers": 6046, "Ġdarker": 6047, "ĠKatie": 6048, "jam": 6049, "sses": 6050, "njoy": 6051, "Tiny": 6052, "ĠX": 6053, "Ġonwards": 6054, "Johnny": 6055, "ley": 6056, "Ġrings": 6057, "Ġunited": 6058, "ĠBeing": 6059, "Achoo": 6060, "ib": 6061, "Ġprettiest": 6062, "Ġbead": 6063, "ĠEveryday": 6064, "Ġrealize": 6065, "Ġcompany": 6066, "Ġcaut": 6067, "Ġpenguins": 6068, "ĠWisdom": 6069, "Ġknights": 6070, "Fr": 6071, "Luna": 6072, "Ġbedtime": 6073, "ĠSpring": 6074, "âĢĿ.": 6075, "ĠLeave": 6076, "Ġcompleted": 6077, "ĠPrin": 6078, "annah": 6079, "Ġflags": 6080, "Ġactions": 6081, "ĠJe": 6082, "Ġkites": 6083, "ĠBecause": 6084, "Ġlearns": 6085, "Ġplayroom": 6086, "Ġpatience": 6087, "Ġgotten": 6088, "Ġshrug": 6089, "ĠZero": 6090, "dam": 6091, "Ġdestination": 6092, "Ġfears": 6093, "inda": 6094, "ĠAva": 6095, "Ġreply": 6096, "aws": 6097, "Ġmountains": 6098, "Ġdam": 6099, "Ġscrubbed": 6100, "Ġresponsible": 6101, "Ġwires": 6102, "Ġma": 6103, "Ġpacking": 6104, "Ġapplauded": 6105, "Ġfault": 6106, "Ġwrist": 6107, "Ġcrept": 6108, "Ġphot": 6109, "ĠEarth": 6110, "Uh": 6111, "Ġpencils": 6112, "Ġsatis": 6113, "Ġsticking": 6114, "Ġwins": 6115, "Ġbaker": 6116, "Ġvisiting": 6117, "Ġthird": 6118, "Ġwound": 6119, "Ġreminder": 6120, "Ġjoking": 6121, "Ġpeas": 6122, "ashed": 6123, "Ġuses": 6124, "Grandpa": 6125, "Ġhealed": 6126, "Ġawake": 6127, "Ġinstruct": 6128, "Ġcontrol": 6129, "ĠFish": 6130, "Ġhitting": 6131, "Ġscreaming": 6132, "ĠPut": 6133, "Ġstaring": 6134, "icorn": 6135, "Rob": 6136, "Ġunicorn": 6137, "uckily": 6138, "ler": 6139, "Ġbegin": 6140, "ĠFriends": 6141, "ĠMoo": 6142, "Ġhelmets": 6143, "enty": 6144, "ĠLou": 6145, "ica": 6146, "Ġcreation": 6147, "seek": 6148, "Ġwasted": 6149, "Silly": 6150, "Ġforgi": 6151, "Ġchips": 6152, "Ġtowels": 6153, "Watch": 6154, "ĠBehind": 6155, "bie": 6156, "Mar": 6157, "Ġmasks": 6158, "Ġitems": 6159, "Ġfirefight": 6160, "laire": 6161, "Ġdied": 6162, "uddles": 6163, "Ġoutdo": 6164, "Ġguns": 6165, "Ġlollipops": 6166, "Ġglitter": 6167, "ĠHippy": 6168, "Ġheav": 6169, "Ġseas": 6170, "Ġlogs": 6171, "Ġstole": 6172, "Ġarrive": 6173, "Ġscales": 6174, "Ġaccom": 6175, "Ġweren": 6176, "Ġperched": 6177, "die": 6178, "Stay": 6179, "Ġcandies": 6180, "Ġinstructions": 6181, "Ġwhose": 6182, "ining": 6183, "Ġpracticing": 6184, "Ġsnakes": 6185, "Ġproject": 6186, "Ġachieve": 6187, "Benny": 6188, "Ġswoop": 6189, "Ġpumpkins": 6190, "Ġbatteries": 6191, "Ġagrees": 6192, "Ġchirping": 6193, "Ġparked": 6194, "Ġprotecting": 6195, "ĠCra": 6196, "Ġactiv": 6197, "Ġpatiently": 6198, "Ġshoulders": 6199, "Ġexact": 6200, "Ġshelves": 6201, "go": 6202, "hee": 6203, "Ġblows": 6204, "Fo": 6205, "uest": 6206, "ĠBop": 6207, "Ġpromises": 6208, "Ġvideos": 6209, "ners": 6210, "rr": 6211, "Ġdent": 6212, "Ġairplane": 6213, "Ġexamined": 6214, "jamas": 6215, "Ġaccompl": 6216, "Doggy": 6217, "Ġroses": 6218, "Poppy": 6219, "Ġtasks": 6220, "Dave": 6221, "ĠHoot": 6222, "usan": 6223, "Ġbeads": 6224, "ĠCatty": 6225, "Ġbowls": 6226, "Bunny": 6227, "Ġcough": 6228, "Ġguest": 6229, "Pete": 6230, "ĠLove": 6231, "Ġcrumbs": 6232, "Ġlistens": 6233, "zes": 6234, "ĠSun": 6235, "ĠBrownie": 6236, "Ġremote": 6237, "ĠOl": 6238, "Ġalien": 6239, "Ġdolphins": 6240, "Ġphotos": 6241, "Ġbunch": 6242, "anta": 6243, "Ġcopy": 6244, "Ġrequested": 6245, "ĠBye": 6246, "cakes": 6247, "Ġimproved": 6248, "Ġcheering": 6249, "Ġbrand": 6250, "Ġreaching": 6251, "irm": 6252, "ĠJan": 6253, "ĠChew": 6254, "ĠCuddles": 6255, "Time": 6256, "ayla": 6257, "Bad": 6258, "ĠJulie": 6259, "ĠBlink": 6260, "Ġtimer": 6261, "Ġcans": 6262, "ĠBy": 6263, "Ġstern": 6264, "Ġreplaced": 6265, "aster": 6266, "Ġworkers": 6267, "Ġneither": 6268, "ĠEnjoy": 6269, "Ġconfl": 6270, "Ġmisses": 6271, "Mike": 6272, "George": 6273, "athy": 6274, "Ġcurtains": 6275, "uctantly": 6276, "Ġrainbows": 6277, "esome": 6278, "Ġpassing": 6279, "Ġbeneath": 6280, "Ġcomplaining": 6281, "Chirpy": 6282, "dies": 6283, "Ġpajamas": 6284, "Ġpatted": 6285, "Ġrolls": 6286, "Ġrubs": 6287, "ĠSquirrel": 6288, "Ġoutdoors": 6289, "Ġtune": 6290, "ĠPrincess": 6291, "ĠAbby": 6292, "ilo": 6293, "Miss": 6294, "Lola": 6295, "Run": 6296, "Ġlap": 6297, "Ġcloses": 6298, "Ġrefuse": 6299, "Ġdrums": 6300, "ĠMouse": 6301, "Ġfaced": 6302, "Ġsweat": 6303, "ĠBeth": 6304, "Ġfilling": 6305, "angled": 6306, "Ġseven": 6307, "Ġbalanced": 6308, "ĠSorry": 6309, "Ġpuppet": 6310, "Ġquacked": 6311, "Ġrescued": 6312, "...": 6313, "bl": 6314, "Ġawesome": 6315, "Ġ1": 6316, "Paul": 6317, "neath": 6318, "Ġmission": 6319, "Ġguys": 6320, "Ġconflict": 6321, "Ġcause": 6322, "Ġvent": 6323, "ĠHowever": 6324, "ĠThomas": 6325, "istle": 6326, "nie": 6327, "Ġobserved": 6328, "Ġintroduc": 6329, "Ġrule": 6330, "Ġcautious": 6331, "Ġexactly": 6332, "Ġmes": 6333, "Ġpastries": 6334, "Ġbecoming": 6335, "ĠOur": 6336, "ĠYes": 6337, "Ġpoliceman": 6338, "Ġdoctors": 6339, "Ġrockets": 6340, "uly": 6341, "you": 6342, "lay": 6343, "Ġpout": 6344, "Ġinsist": 6345, "ĠSad": 6346, "Ġblooming": 6347, "An": 6348, "Ġfairies": 6349, "avi": 6350, "Ġtractor": 6351, "Ġfarther": 6352, "ĠDot": 6353, "Oops": 6354, "Ġteamwork": 6355, "zie": 6356, "Great": 6357, "Ġincluded": 6358, "Ġremembering": 6359, "Fine": 6360, "Zoom": 6361, "acob": 6362, "Ġcurly": 6363, "Ġfascinated": 6364, "Ġhelpers": 6365, "Ġtruly": 6366, "Ġsights": 6367, "Ġslam": 6368, "Ġfirm": 6369, "Ġwobbled": 6370, "ĠJilly": 6371, "Ġpaddle": 6372, "Ġcaused": 6373, "Ġrecording": 6374, "Henry": 6375, "Ġstumble": 6376, "Ġspong": 6377, "Ġprayer": 6378, "Ġtraded": 6379, "Ġstarfish": 6380, "Ġneighbourhood": 6381, "Ġthro": 6382, "Ġinviting": 6383, "kelly": 6384, "Ġsituation": 6385, "Ġpointy": 6386, "eah": 6387, "Ġsupplies": 6388, "ĠAlly": 6389, "Ġvalued": 6390, "Ġeveryday": 6391, "ais": 6392, "gers": 6393, "inkle": 6394, "Ġbare": 6395, "Ġreluctantly": 6396, "Ġornaments": 6397, "Ġprettier": 6398, "Some": 6399, "Ġadding": 6400, "Ġdots": 6401, "Ġstays": 6402, "araway": 6403, "Ġtables": 6404, "Ġdesert": 6405, "Ġsnowmen": 6406, "Ġfaraway": 6407, "Ġsteady": 6408, "Ġglasses": 6409, "Ġminerals": 6410, "Ġthorn": 6411, "Ġast": 6412, "ĠGet": 6413, "ody": 6414, "ĠFoxy": 6415, "ĠSure": 6416, "Ġunf": 6417, "Ġusual": 6418, "Ġswooped": 6419, "Ġusually": 6420, "ĠWelcome": 6421, "ĠTwo": 6422, "Ġforks": 6423, "Ġdar": 6424, "ĠQuick": 6425, "ĠJamie": 6426, "Ġwinked": 6427, "Ġpans": 6428, "Ġsponge": 6429, "Ġsneezing": 6430, "Ġloading": 6431, "ĠJosh": 6432, "Ġsolut": 6433, "Polly": 6434, "James": 6435, "ĠSanta": 6436, "Ġinsects": 6437, "Ġsobbed": 6438, "arter": 6439, "Dog": 6440, "ĠChloe": 6441, "Ġgrowling": 6442, "Ġthroat": 6443, "agull": 6444, "sm": 6445, "Ġnoses": 6446, "Ġhomework": 6447, "Ġscarves": 6448, "ĠWant": 6449, "Ġwindy": 6450, "Ġconfident": 6451, "ĠDizzy": 6452, "ĠStay": 6453, "Ġsuperheroes": 6454, "ĠKids": 6455, "Ġsmarter": 6456, "Ġyourselves": 6457, "ora": 6458, "Joey": 6459, "Tina": 6460, "Ġlibrarian": 6461, "Ġkicks": 6462, "coon": 6463, "Ġitchy": 6464, "Ġunderneath": 6465, "Ġknowled": 6466, "Days": 6467, "Ġgems": 6468, "Ġcomm": 6469, "Ġknowledge": 6470, "Ġuntie": 6471, "ĠDuck": 6472, "ĠFor": 6473, "Ġjackets": 6474, "ĠHenny": 6475, "Ġsurface": 6476, "...\"": 6477, "Ġprincesses": 6478, "iar": 6479, "ĠSkelly": 6480, "Hold": 6481, "Yeah": 6482, "Those": 6483, "ido": 6484, "eed": 6485, "Ġwarnings": 6486, "Our": 6487, "Ġropes": 6488, "Ġsquares": 6489, "Ġgiggling": 6490, "Ġreads": 6491, "vin": 6492, "Ġchoo": 6493, "ĠMix": 6494, "True": 6495, "Ġclowns": 6496, "Ġyounger": 6497, "Ġbiting": 6498, "Ġseagull": 6499, "Ġwears": 6500, "Toby": 6501, "Ġdelivered": 6502, "ĠMon": 6503, "son": 6504, "ĠUnfortunately": 6505, "pite": 6506, "Danny": 6507, "Ġtwirl": 6508, "Ġcomplained": 6509, "Ew": 6510, "Ġbuzzed": 6511, "Ġcrowd": 6512, "Mrs": 6513, "Ġpaddled": 6514, "ouch": 6515, "Ġstem": 6516, "Ġonions": 6517, "Ġbumpy": 6518, "ults": 6519, "Ġdirection": 6520, "Ġpiggy": 6521, "Ġdived": 6522, "Ġstartled": 6523, "ĠAnne": 6524, "Ġleaning": 6525, "Roar": 6526, "Ġtangled": 6527, "ĠPo": 6528, "bbie": 6529, "ĠJones": 6530, "Ġunp": 6531, "Ġbadge": 6532, "though": 6533, "ĠAnt": 6534, "Ġdeal": 6535, "Grace": 6536, "Ġvowed": 6537, "Shh": 6538, "Annie": 6539, "Ġnapkins": 6540, "anes": 6541, "Ġcovers": 6542, "Ġtickled": 6543, "Ġrisk": 6544, "int": 6545, "Ġpec": 6546, "Ġyells": 6547, "Ġknocks": 6548, "Ġcous": 6549, "cuse": 6550, "tuce": 6551, "Ġsatisfied": 6552, "Ġrefreshed": 6553, "ĠDodo": 6554, "Maggie": 6555, "ĠSc": 6556, "Ġarrows": 6557, "Pe": 6558, "ĠRover": 6559, "Unfortunately": 6560, "Ġspeaking": 6561, "Ġlettuce": 6562, "Ġwipes": 6563, "Ġchoices": 6564, "ĠWhistle": 6565, "Ġripe": 6566, "Buzz": 6567, "Ġhides": 6568, "Ġguessing": 6569, "Ġsigned": 6570, "Ġseeker": 6571, "ĠQuack": 6572, "Ġslower": 6573, "Ġcreating": 6574, "Ġfroze": 6575, "Sophie": 6576, "Ġintroduced": 6577, "Ġsinger": 6578, "ĠSusan": 6579, "Ġcent": 6580, "Ġjoked": 6581, "Ġexplorers": 6582, "anging": 6583, "Ġpraying": 6584, "Ġprovided": 6585, "uggles": 6586, "Ġtoaster": 6587, "Ġavo": 6588, "Ġsqueal": 6589, "ĠMatt": 6590, "Ġdiscovering": 6591, "ĠDara": 6592, "Ġrefle": 6593, "Excuse": 6594, "Ġpaying": 6595, "Ġwritten": 6596, "ĠJeff": 6597, "Ġmushrooms": 6598, "ĠLion": 6599, "ĠPaws": 6600, "Ġmagnets": 6601, "Ġknees": 6602, "ĠĠ": 6603, "Ġhider": 6604, "Ġwandering": 6605, "Ġimages": 6606, "ences": 6607, "Ġbarely": 6608, "fit": 6609, "Charlie": 6610, "Ġrestored": 6611, "ĠWink": 6612, "Ġbehaving": 6613, "Ġstung": 6614, "Ġleading": 6615, "ados": 6616, "?\",": 6617, "Ġmarked": 6618, "Ġtipto": 6619, "brush": 6620, "ĠAsh": 6621, "eal": 6622, "Teddy": 6623, "Ġgreet": 6624, "lled": 6625, "Ġchuck": 6626, "Ġnine": 6627, "Ġbravery": 6628, "ĠDee": 6629, "Ġcompetition": 6630, "Ġmuscle": 6631, "Ġproperly": 6632, "Ġwishing": 6633, "ĠBetsy": 6634, "Ġventured": 6635, "ĠSnuggles": 6636, "oline": 6637, "Ġoutfit": 6638, "Ġchat": 6639, "ky": 6640, "Ġbak": 6641, "Ġranger": 6642, "Ġdeserve": 6643, "Ġgears": 6644, "Ġsalty": 6645, "Ġhowever": 6646, "ĠZiggy": 6647, "Ġdances": 6648, "rrr": 6649, "amb": 6650, "sequ": 6651, "Ġblocking": 6652, "Ġpens": 6653, "tle": 6654, "Ġmatters": 6655, "Ġchefs": 6656, "Ġdarkness": 6657, "itely": 6658, "Ġconsequ": 6659, "usted": 6660, "Ġvines": 6661, "Ġcobwebs": 6662, "Ġruining": 6663, "Ġrainy": 6664, "Ġscur": 6665, "Ġfab": 6666, "sty": 6667, "Ġburst": 6668, "Ġfabric": 6669, "Ġavocados": 6670, "ĠFu": 6671, "Ġbasement": 6672, "ĠBuggy": 6673, "Ġentire": 6674, "Ġperformed": 6675, "Ġleast": 6676, "abel": 6677, "Sn": 6678, "Ġscratches": 6679, "Ġheavier": 6680, "rink": 6681, "Ġtwirling": 6682, "ĠClaire": 6683, "ĠJenna": 6684, "Ġmints": 6685, "Ġscurried": 6686, "Ġlosing": 6687, "Tweet": 6688, "However": 6689, "Ġclick": 6690, "ĠLinda": 6691, "Ġswords": 6692, "ĠLuke": 6693, "fl": 6694, "Ġflames": 6695, "Ġsnat": 6696, "Ġsunflowers": 6697, "Ġnecklaces": 6698, "ĠLaser": 6699, "agic": 6700, "Jerry": 6701, "Ġrainco": 6702, "Ġrelief": 6703, "Ġtricky": 6704, "Ġrotting": 6705, "Ġjobs": 6706, "Listen": 6707, "Ġsewed": 6708, "Ġsilent": 6709, "Follow": 6710, "Ġlighter": 6711, "len": 6712, "ĠLena": 6713, "Ġexha": 6714, "ĠPr": 6715, "ĠGrumpy": 6716, "Ġconsequences": 6717, "Ġstain": 6718, "Ġbows": 6719, "Ġsolution": 6720, "Alex": 6721, "ophia": 6722, "Ġunpacked": 6723, "Ġpins": 6724, "Ġwraps": 6725, "ĠSkip": 6726, "Beep": 6727, "Ġpartic": 6728, "Ġtires": 6729, "rance": 6730, "Ġbumps": 6731, "Ab": 6732, "Ġdecorating": 6733, "Ġwow": 6734, "Ġraces": 6735, "Ġbacked": 6736, "Ġdentist": 6737, "Ġaccomplish": 6738, "Ġannoy": 6739, "Ġpurr": 6740, "cher": 6741, "aisies": 6742, "Ġlifting": 6743, "Ġneedles": 6744, "Ġcautiously": 6745, "Ġgrowls": 6746, "Ġhesitated": 6747, "ept": 6748, "ĠThose": 6749, "izzie": 6750, "oke": 6751, "Ġbodies": 6752, "Ġdaisies": 6753, "Ġtriangles": 6754, "Ġcrackers": 6755, "Ġgri": 6756, "Ġcott": 6757, "ĠFido": 6758, "Ġmater": 6759, "Ġgrabbing": 6760, "Ġfigured": 6761, "Ġbuying": 6762, "Ġgrows": 6763, "Ġmaterial": 6764, "ĠAdam": 6765, "Ġstomped": 6766, "ĠĊĠ": 6767, "ĠJessie": 6768, "Ġsweets": 6769, "ĠTree": 6770, "ĠGoodbye": 6771, "vers": 6772, "Ġcheeks": 6773, "Ġflavor": 6774, "Ġties": 6775, "ĠRolly": 6776, "Big": 6777, "Ġbakery": 6778, "Ġgroups": 6779, "Ġswans": 6780, "Ġforehead": 6781, "Ġfact": 6782, "bly": 6783, "vroom": 6784, "elle": 6785, "Ġowners": 6786, "Ġrepa": 6787, "Ġinterested": 6788, "Ġsuffering": 6789, "Lilly": 6790, "Harry": 6791, "ĠCathy": 6792, "ĠNana": 6793, "ĠNothing": 6794, "Ġthud": 6795, "ĠEl": 6796, "itches": 6797, "Ġlungs": 6798, "Ġchuckled": 6799, "Ġfreed": 6800, "Ru": 6801, "?'": 6802, "Ġconn": 6803, "ĠMilo": 6804, "For": 6805, "Ġtwinkling": 6806, "Ġexhausted": 6807, "Ġswept": 6808, "rosty": 6809, "Ġdarling": 6810, "Ġworries": 6811, "Ġfeast": 6812, "Ġtunnels": 6813, "Ġtapped": 6814, "Tw": 6815, "lets": 6816, "Ġactivities": 6817, "Ġrepaired": 6818, "Ġnect": 6819, "Ġnectar": 6820, "indr": 6821, "Ġuns": 6822, "ĠTrust": 6823, "Ġreason": 6824, "ĠBall": 6825, "ĠMad": 6826, "Ġcompletely": 6827, "Ġentrance": 6828, "ĠCopper": 6829, "Ġmailed": 6830, "Ġpecked": 6831, "band": 6832, "Ġsense": 6833, "Ġcuddly": 6834, "Ġfuzzy": 6835, "Ġnests": 6836, "ĠTry": 6837, "Ġparticular": 6838, "step": 6839, "ĠListen": 6840, "ctions": 6841, "Ġraindr": 6842, "Ġwaiter": 6843, "Ġplenty": 6844, "Ġmeals": 6845, "Ġpeeking": 6846, "ĠHannah": 6847, "Ġleap": 6848, "ĠQ": 6849, "Ġcolored": 6850, "no": 6851, "Ġslammed": 6852, "Ġplayers": 6853, "ĠBirthday": 6854, "arky": 6855, "Ġmonth": 6856, "Ġhandful": 6857, "ĠCara": 6858, "Ġforgets": 6859, "Ġfeeding": 6860, "Ġden": 6861, "Ġscra": 6862, "Ġbudge": 6863, "Ġpassports": 6864, "ossible": 6865, "ĠOliver": 6866, "iggie": 6867, "Ġstool": 6868, "ĠPup": 6869, "Ġmer": 6870, "ĠSuzie": 6871, "lephant": 6872, "Ġgenie": 6873, "Ġbaths": 6874, "Ġtalks": 6875, "Ġimpossible": 6876, "ueen": 6877, "Ġdetermination": 6878, "ĠChrist": 6879, "May": 6880, "Ġfilms": 6881, "Ġspikes": 6882, "aa": 6883, "Ġprinting": 6884, "Ġdesigned": 6885, "Ġopp": 6886, "Ġcounts": 6887, "Ġbars": 6888, "Ġbuses": 6889, "Ġspreading": 6890, "Ġhonked": 6891, "boat": 6892, "Ġsteer": 6893, "Ġstolen": 6894, "ĠSnap": 6895, "Whee": 6896, "Ġwiping": 6897, "Ġseparated": 6898, "Ġsuitcase": 6899, "etty": 6900, "Ġlamb": 6901, "blings": 6902, "ĠRain": 6903, "Ġsiblings": 6904, "Ġchop": 6905, "Ġcowb": 6906, "nies": 6907, "ĠTwinkle": 6908, "Ġsewing": 6909, "Ġchanging": 6910, "Ġfever": 6911, "Ġliqu": 6912, "Ġcelebration": 6913, "Ġbehavi": 6914, "ĠPeanut": 6915, "Ġfires": 6916, "Ġhops": 6917, "Ġty": 6918, "Ġcamping": 6919, "Ġbackward": 6920, "Ġtwinkle": 6921, "Sunny": 6922, "Ġlower": 6923, "retch": 6924, "lee": 6925, "Ġsnatched": 6926, "ho": 6927, "ĠBloom": 6928, "Ġdollhouse": 6929, "yes": 6930, "but": 6931, "ĠMira": 6932, "itched": 6933, "Ġage": 6934, "Ġsquealed": 6935, "ĠJacob": 6936, "Ġcash": 6937, "mas": 6938, "Ġcelebrating": 6939, "Ġtwice": 6940, "Ġshrinking": 6941, "Ġsway": 6942, "ĠJessica": 6943, "ĠMel": 6944, "rious": 6945, "Ġache": 6946, "ĠGina": 6947, "Ġkittens": 6948, "Ġhus": 6949, "Rose": 6950, "Ġkings": 6951, "Sandy": 6952, "Ġshops": 6953, "Ġtouches": 6954, "weed": 6955, "Ġavoid": 6956, "cope": 6957, "aura": 6958, "Ġspat": 6959, "Ġpaths": 6960, "Ġpancakes": 6961, "Ġstudents": 6962, "ĠFrosty": 6963, "Ġdropping": 6964, "Ġcalmed": 6965, "airy": 6966, "ĠRe": 6967, "Ġuntied": 6968, "rig": 6969, "iles": 6970, "Ġstroked": 6971, "Pipp": 6972, "Millie": 6973, "ĠHold": 6974, "hog": 6975, "ĠJon": 6976, "Ġtwisting": 6977, "cky": 6978, "Ġliquid": 6979, "Ġrotten": 6980, "cl": 6981, "Ġsomebody": 6982, "ives": 6983, "llen": 6984, "Ġseaweed": 6985, "ĠNina": 6986, "hi": 6987, "Ġsquish": 6988, "Ġplayhouse": 6989, "Ġastron": 6990, "ne": 6991, "Ġbracelets": 6992, "Ġwakes": 6993, "Ġscrews": 6994, "igning": 6995, "Ġpuppies": 6996, "Ġastronaut": 6997, "Ġloops": 6998, "ĠWoof": 6999, "ĠOther": 7000, "Luckily": 7001, "Ġplanning": 7002, "aren": 7003, "Ġtramp": 7004, "Ġthrown": 7005, "Ġaimed": 7006, "Ġplain": 7007, "immer": 7008, "ammy": 7009, "Ġskunk": 7010, "Ġwrapping": 7011, "Ġfirefly": 7012, "Ġdancers": 7013, "Ġshoo": 7014, "Ġsparks": 7015, "Ġpennies": 7016, "Ġcust": 7017, "Ġposter": 7018, "Ġrewarded": 7019, "Ġlifts": 7020, "Ġhusband": 7021, "Dan": 7022, "âĢĶ": 7023, "pen": 7024, "Ġreflection": 7025, "Ġdirections": 7026, "Ġobjects": 7027, "Take": 7028, "endy": 7029, "using": 7030, "Ġincreased": 7031, "yan": 7032, "ĠYesterday": 7033, "ĠChristmas": 7034, "uppy": 7035, "river": 7036, "Ġclues": 7037, "ĠâĢĺ": 7038, "Ġleads": 7039, "Ġrising": 7040, "Ġcustom": 7041, "ĠWithout": 7042, "Ġcousin": 7043, "ingo": 7044, "Ġdod": 7045, "ĠRollie": 7046, "Ġblocked": 7047, "Ġtrampoline": 7048, "Ġforgetting": 7049, "Kate": 7050, "ude": 7051, "Ġaff": 7052, "rigued": 7053, "Ġbeginning": 7054, "Ġpouted": 7055, "Ġstorekeeper": 7056, "Jump": 7057, "Ġcountryside": 7058, "Ġhedgehog": 7059, "Ġmesmer": 7060, "Ġborrowed": 7061, "Ġinstrum": 7062, "ĠQueen": 7063, "jo": 7064, "iece": 7065, "ĠTara": 7066, "Ġfrowning": 7067, "ĠJay": 7068, "yond": 7069, "Ġbeyond": 7070, "Ġzebras": 7071, "ĠUp": 7072, "Ġsnowfl": 7073, "Ġvehicles": 7074, "ĠKayla": 7075, "ĠBiggie": 7076, "ĠMic": 7077, "Pat": 7078, "Under": 7079, "Ġwhispers": 7080, "Ġfart": 7081, "ivity": 7082, "Ġdamage": 7083, "Ġpresses": 7084, "Ġlaying": 7085, "Ġnibb": 7086, "Ġmarker": 7087, "ĠRobo": 7088, "Ġhealth": 7089, "ĠOnly": 7090, "Ġflapping": 7091, "Ġswimsuit": 7092, "ivery": 7093, "Ġwarmer": 7094, "Ġregretted": 7095, "ades": 7096, "Ġrains": 7097, "Ġslips": 7098, "armer": 7099, "Ġglued": 7100, "Ġtiptoed": 7101, "ĠElephant": 7102, "itted": 7103, "Ġeverybody": 7104, "Ġyelp": 7105, "Zip": 7106, "Ġcushions": 7107, "ĠFire": 7108, "ĠJulia": 7109, "Ġcolder": 7110, "iversity": 7111, "ael": 7112, "Ġcreations": 7113, "ĠSparky": 7114, "Ġsan": 7115, "Ġswir": 7116, "Ġhearing": 7117, "Ġrusty": 7118, "Out": 7119, "Ġfins": 7120, "Ġshaped": 7121, "iam": 7122, "ĠMoon": 7123, "Ġstreets": 7124, "Ġfarthest": 7125, "Ġsale": 7126, "Ġbells": 7127, "iti": 7128, "Ġstrongest": 7129, "Ġcreativity": 7130, "ans": 7131, "Ġfits": 7132, "Always": 7133, "Milly": 7134, "angle": 7135, "ibbit": 7136, "Ġsank": 7137, "ĠMikey": 7138, "Ġlending": 7139, "Ġearn": 7140, "eese": 7141, "Ġincluding": 7142, "ĠChirp": 7143, "Ġcashier": 7144, "Ġdollars": 7145, "Ġwobbly": 7146, "Ġsniffs": 7147, "Ġsource": 7148, "Ġstopping": 7149, "Ġspells": 7150, "Ġtrembled": 7151, "ĠRich": 7152, "ĠLarry": 7153, "Ġguests": 7154, "ters": 7155, "Ġsingle": 7156, "Ġindeed": 7157, "Ġraincoat": 7158, "Ġrecommended": 7159, "ĠSnowman": 7160, "Ġends": 7161, "Ġaccomplishment": 7162, "imon": 7163, "Ġhopeful": 7164, "ĠMissy": 7165, "Ġbelts": 7166, "Ġsurprising": 7167, "Bear": 7168, "Ġsuffered": 7169, "Ġsupported": 7170, "ichael": 7171, "Ġseasons": 7172, "Ġspins": 7173, "ĠTake": 7174, "Ġgross": 7175, "Ġencourag": 7176, "the": 7177, "ĠEls": 7178, "eet": 7179, "Ġslowed": 7180, "Quack": 7181, "Ġforgiving": 7182, "Ġplans": 7183, "illed": 7184, "iding": 7185, "ĠWoo": 7186, "Ġartist": 7187, "stick": 7188, "Ġperformance": 7189, "Ġstands": 7190, "cho": 7191, "Ġvanilla": 7192, "Ġraindrops": 7193, "arac": 7194, "ertain": 7195, "Nina": 7196, "Ġflavors": 7197, "uing": 7198, "Ġturtles": 7199, "Ġlabels": 7200, "obody": 7201, "Ġraccoon": 7202, "Ġdelivery": 7203, "ility": 7204, "Ġpours": 7205, "Ġbeam": 7206, "Bill": 7207, "ĠSw": 7208, "uess": 7209, "Ġdie": 7210, "Ġgeese": 7211, "Ġpops": 7212, "Ġtying": 7213, "Ġcorners": 7214, "Ġrobber": 7215, "Ġrecipe": 7216, "Vroom": 7217, "Ġgrip": 7218, "Ġhallway": 7219, "Ġmoo": 7220, "Ġdrawn": 7221, "Ġcharac": 7222, "Ġwilling": 7223, "ĠIzzy": 7224, "elia": 7225, "Ġwept": 7226, "Ġwidened": 7227, "Ġdrivers": 7228, "Ġqueens": 7229, "itude": 7230, "Mine": 7231, "ĠBones": 7232, "Ġimagining": 7233, "ĠSophia": 7234, "Ġsailboat": 7235, "ĠPam": 7236, "ĠSpirit": 7237, "Ġadult": 7238, "Ġseconds": 7239, "Ġpreparing": 7240, "Ġsending": 7241, "Ġgrocer": 7242, "Ġtalented": 7243, "Ġaside": 7244, "Ġsofter": 7245, "Ġwatering": 7246, "Lulu": 7247, "lling": 7248, "ĠFuzzy": 7249, "ummies": 7250, "Ġcoop": 7251, "Ġtipped": 7252, "Ġunsure": 7253, "Ġsailors": 7254, "Ġdelivering": 7255, "Ġnotes": 7256, "Ġtreehouse": 7257, "ĠCindy": 7258, "Ġknots": 7259, "Ġhoriz": 7260, "Co": 7261, "ĠBeaky": 7262, "igers": 7263, "Ġecho": 7264, "ĠStella": 7265, "ĠLizzie": 7266, "Ġfigures": 7267, "Ġangels": 7268, "Ġpleasure": 7269, "Ellie": 7270, "Ġhorizon": 7271, "Ġsqueak": 7272, "Clara": 7273, "Ġachieved": 7274, "ĠRobert": 7275, "Ġcuriously": 7276, "Ġblinking": 7277, "Ġyum": 7278, "Ġhotter": 7279, "Ġtweet": 7280, "ĠRudy": 7281, "Ġtiss": 7282, "Ġpupils": 7283, "umbling": 7284, "Ġbackwards": 7285, "ĠStretch": 7286, "Ġburrow": 7287, "ĠJune": 7288, "alph": 7289, "Ġpigeons": 7290, "Ġtummies": 7291, "Ġsymbols": 7292, "Ġbandages": 7293, "Ġdet": 7294, "Ġpassen": 7295, "Ġrobots": 7296, "Ġtossed": 7297, "uzz": 7298, "Ġhour": 7299, "wk": 7300, "Baby": 7301, "oey": 7302, "ĠCrab": 7303, "Ġrather": 7304, "Ġcoup": 7305, "cited": 7306, "ĠTiti": 7307, "ipper": 7308, "Ġroars": 7309, "Dolly": 7310, "atur": 7311, "ĠDoctor": 7312, "Very": 7313, "Ġmerma": 7314, "ĠPlay": 7315, "Ġgroceries": 7316, "Maria": 7317, "Put": 7318, "Ġunw": 7319, "Ġicing": 7320, "Ġamong": 7321, "Ġblown": 7322, "Ġrumble": 7323, "ighting": 7324, "Ġzipping": 7325, "Ġafterwards": 7326, "!âĢĿ.": 7327, "Ruby": 7328, "prin": 7329, "ĠTia": 7330, "Ġshovels": 7331, "ĠTurt": 7332, "Ġscrewd": 7333, "Ġmerry": 7334, "Ġovercome": 7335, "ushing": 7336, "ĠToot": 7337, "Ġdip": 7338, "Ġsurfboard": 7339, "Ġglee": 7340, "Ġprove": 7341, "Ġsped": 7342, "Quick": 7343, "Ġfirefighters": 7344, "eds": 7345, "Ġheading": 7346, "Su": 7347, "Ġwobble": 7348, "ĠAbbie": 7349, "Ġreversed": 7350, "Jul": 7351, "Ġswall": 7352, "Ġswallowed": 7353, "Ġslices": 7354, "Ġmate": 7355, "Ġflipped": 7356, "Ġsqueezing": 7357, "Ġscored": 7358, "Ġdisturbing": 7359, "usty": 7360, "ĠJump": 7361, "Sad": 7362, "awn": 7363, "ĠEx": 7364, "Moo": 7365, "Frank": 7366, "Ġwaking": 7367, "Ġchip": 7368, "Ġmaker": 7369, "Like": 7370, "Betty": 7371, "Ġintrigued": 7372, "aty": 7373, "Ġaud": 7374, "Ġpuff": 7375, "Ġencouraging": 7376, "ĠBarky": 7377, "Ġsquishy": 7378, "osen": 7379, "Ġchosen": 7380, "Ġhawk": 7381, "onies": 7382, "Ġslipping": 7383, "hew": 7384, "ĠFarmer": 7385, "ĠAng": 7386, "iley": 7387, "Ġdesigns": 7388, "Ġmarkers": 7389, "Ġgardener": 7390, "ĠSl": 7391, "Ġscrewdriver": 7392, "Ġfrowns": 7393, "Ġtigers": 7394, "Ġcenter": 7395, "ĠSadly": 7396, "Ġcouple": 7397, "Ġrespond": 7398, "pecting": 7399, "Ġfluttered": 7400, "ĠRon": 7401, "Ġrivers": 7402, "Ribbit": 7403, "Ġbru": 7404, "bird": 7405, "ĠEmmy": 7406, "Ġsecure": 7407, "Ġignoring": 7408, "ashes": 7409, "ounce": 7410, "Ġtighter": 7411, "Ġjars": 7412, "ĠRyan": 7413, "Ġsharks": 7414, "Ġsprinkled": 7415, "Ġtissue": 7416, "Ġfirefighter": 7417, "Ġsuits": 7418, "Ġgiggles": 7419, "fly": 7420, "Ġcreamy": 7421, "Ġfirmly": 7422, "ĠKit": 7423, "Spike": 7424, "Ġshown": 7425, "Ġfamiliar": 7426, "Car": 7427, "ĠLaura": 7428, "Ġthorns": 7429, "ĠWo": 7430, "ĠZee": 7431, "Ġdef": 7432, "ĠNick": 7433, "Ġperforming": 7434, "Ġcor": 7435, "Ġaudience": 7436, "Ġcoloured": 7437, "Ġcrossing": 7438, "Get": 7439, "Ġdaring": 7440, "Ġexpress": 7441, "Ġtodd": 7442, "Ġdrawers": 7443, "ments": 7444, "Ġcloudy": 7445, "Ġgracefully": 7446, "Ġais": 7447, "child": 7448, "Zoomy": 7449, "Ġyielded": 7450, "rat": 7451, "Ġpedaled": 7452, "ae": 7453, "ĠPatch": 7454, "Ġhaircuts": 7455, "Ġmixture": 7456, "Ġdisob": 7457, "bbled": 7458, "Ġtil": 7459, "Ġponies": 7460, "Ġev": 7461, "ggy": 7462, "Ġbits": 7463, "fall": 7464, "Ġcrowns": 7465, "Ġnervously": 7466, "Ġminded": 7467, "Ġ2": 7468, "Ġstroke": 7469, "Ġpays": 7470, "Bang": 7471, "ĠSleep": 7472, "Ġrespected": 7473, "Ġhangers": 7474, "Ġnapped": 7475, "ĠTurtle": 7476, "ddie": 7477, "aven": 7478, "Ġtested": 7479, "ading": 7480, "Bessie": 7481, "Ġpeck": 7482, "Boys": 7483, "ably": 7484, "Kim": 7485, "Ġsurfing": 7486, "ĠNear": 7487, "Ġsails": 7488, "parent": 7489, "Ġbeeh": 7490, "ĠUniversity": 7491, "ĠChris": 7492, "Ġshady": 7493, "ĠTweetie": 7494, "Ġenthusiasm": 7495, "Ġwisely": 7496, "Ġmagician": 7497, "Ġneighbours": 7498, "Ġstitches": 7499, "arlings": 7500, "Ġdarlings": 7501, "Ġreminds": 7502, "Ġweekend": 7503, "vered": 7504, "fted": 7505, "Ġsurroundings": 7506, "Dear": 7507, "arrow": 7508, "iona": 7509, "Freddy": 7510, "Ġfleas": 7511, "Ġtemper": 7512, "Ġthoughts": 7513, "Ġspits": 7514, "Ġsports": 7515, "oring": 7516, "Ġscooters": 7517, "ĠAlong": 7518, "Ġpaintbrush": 7519, "Katie": 7520, "antha": 7521, "lle": 7522, "Ġflip": 7523, "Ġfills": 7524, "Ġelbow": 7525, "tha": 7526, "Ġteams": 7527, "Ġlessons": 7528, "Ġlies": 7529, "Guess": 7530, "Ġamount": 7531, "Ġmelons": 7532, "Ġexplo": 7533, "Ġcleaner": 7534, "Ġpanicked": 7535, "Ġmermaid": 7536, "Ġsill": 7537, "Ġgrandchild": 7538, "Pippin": 7539, "ĠFighting": 7540, "cused": 7541, "Ġlent": 7542, "rac": 7543, "oni": 7544, "Ġlongest": 7545, "Ġforgiven": 7546, "Alright": 7547, "Ġbeehive": 7548, "Ġhoops": 7549, "Ġoysters": 7550, "Ġbeloved": 7551, "immering": 7552, "ita": 7553, "Ġgrandparent": 7554, "ongrat": 7555, "ongratul": 7556, "oga": 7557, "Ġmagazines": 7558, "Ġrepeating": 7559, "Ġcrew": 7560, "Ġarr": 7561, "ĠThanks": 7562, "ĠWise": 7563, "Keep": 7564, "Ġlace": 7565, "Ġdiscussed": 7566, "Ġbathing": 7567, "Ġsweetest": 7568, "ĠGranny": 7569, "ĠHolly": 7570, "Ġwadd": 7571, "Ġreass": 7572, "ĠMaya": 7573, "Ġtubes": 7574, "Ġelf": 7575, "Ġsprang": 7576, "ĠWilly": 7577, "Ġspoonful": 7578, "steps": 7579, "Ġnightmares": 7580, "Am": 7581, "Ġguide": 7582, "romise": 7583, "ĠZoey": 7584, "asty": 7585, "Ġunderstands": 7586, "Ġmanners": 7587, "Ġsweep": 7588, "ĠYet": 7589, "Ġwrink": 7590, "Ġbully": 7591, "Ġbreathed": 7592, "Ġnur": 7593, "ently": 7594, "Jazz": 7595, "Uncle": 7596, "Ġnood": 7597, "onna": 7598, "Ġneare": 7599, "ĠBally": 7600, "crow": 7601, "Ġfootsteps": 7602, "while": 7603, "Ġsolving": 7604, "Ġgrassy": 7605, "ĠSparkle": 7606, "Ġcoug": 7607, "Ġbulbs": 7608, "ancy": 7609, "Ġspeeding": 7610, "Afterwards": 7611, "Ġtesting": 7612, "Ġspies": 7613, "Ġlicking": 7614, "Ġwiggly": 7615, "cept": 7616, "ntil": 7617, "ilda": 7618, "Ġpolar": 7619, "?!\"": 7620, "ounced": 7621, "Ġfocused": 7622, "Ġsheets": 7623, "Ġjoining": 7624, "Ġmesmerized": 7625, "Ġhesitant": 7626, "Ġbraver": 7627, "ĠRoo": 7628, "Ġmast": 7629, "ĠPuppy": 7630, "een": 7631, "espite": 7632, "Ġrushing": 7633, "Ġgreeted": 7634, "ĠWell": 7635, "Ġships": 7636, "Ġscattering": 7637, "Ġchanges": 7638, "ĠNobody": 7639, "Which": 7640, "Ġanger": 7641, "Ġcamel": 7642, "Ġnuzz": 7643, "ĠMartha": 7644, "Ġmaterials": 7645, "Ġpeacefully": 7646, "Kiki": 7647, "undred": 7648, "Ġspice": 7649, "ĠShow": 7650, "Leave": 7651, "Ġstored": 7652, "ĠLenny": 7653, "Ġworn": 7654, "Ġspills": 7655, "Ġgonna": 7656, "Ġevil": 7657, "Ġpolitely": 7658, "Ġterrified": 7659, "Ġbicycles": 7660, "ĠBubb": 7661, "Ġdonkey": 7662, "Even": 7663, "ĠMixy": 7664, "Snow": 7665, "Ġhealing": 7666, "Ġmiles": 7667, "ĠSoft": 7668, "Ġaeroplanes": 7669, "Ġaren": 7670, "Ġburying": 7671, "Ġknives": 7672, "ppies": 7673, "Ġdump": 7674, "Ġscarecrow": 7675, "ĠNice": 7676, "ca": 7677, "Ġseals": 7678, "Penny": 7679, "Ġworrying": 7680, "David": 7681, "freeze": 7682, "zoom": 7683, "ĠChewy": 7684, "Ġloses": 7685, "beep": 7686, "amboo": 7687, "Bee": 7688, "Ġstacked": 7689, "Ġpuzzled": 7690, "dding": 7691, "Ġtravelled": 7692, "Ġgazing": 7693, "Ġund": 7694, "Ġ10": 7695, "Hurry": 7696, "ĠOkay": 7697, "Ġblast": 7698, "Ġtasting": 7699, "Ġbaskets": 7700, "rey": 7701, "erm": 7702, "Ġdripping": 7703, "Ġsoaking": 7704, "ĠWin": 7705, "ĠKip": 7706, "ipes": 7707, "Ġrats": 7708, "Ġclue": 7709, "Ġtemperature": 7710, "Ġpinching": 7711, "rect": 7712, "ĠChess": 7713, "ĠIsn": 7714, "Ġbelieving": 7715, "Ġhumans": 7716, "Ġforce": 7717, "ĠTess": 7718, "Ġbanged": 7719, "Ġpunishment": 7720, "Ġswimmer": 7721, "anwhile": 7722, "Ġsandy": 7723, "ĠAbi": 7724, "Ġtoddler": 7725, "Binky": 7726, "ofia": 7727, "Ġgest": 7728, "isc": 7729, "Ġcrashing": 7730, "ĠSimon": 7731, "Ġhundred": 7732, "Ġbackpacks": 7733, "ĠPh": 7734, "ĠAna": 7735, "Ġrelaxing": 7736, "Ġbeeped": 7737, "Ġjoins": 7738, "ĠLia": 7739, "ĠWendy": 7740, "form": 7741, "Ġsnowflakes": 7742, "ĠĊ": 7743, "Ġresisted": 7744, "elie": 7745, "Ġquarreled": 7746, "ĠTe": 7747, "Ġflight": 7748, "years": 7749, "Ġdelayed": 7750, "ĠFairy": 7751, "ĠCow": 7752, "ĠLuckily": 7753, "Ġdressing": 7754, "Ġpotion": 7755, "Ġramp": 7756, "Ġencouragement": 7757, "Bow": 7758, "orter": 7759, "By": 7760, "'.\"": 7761, "Ġpurpose": 7762, "Ġcorrect": 7763, "Ġtoward": 7764, "Ġcovering": 7765, "--": 7766, "Ġmaster": 7767, "Ġfocus": 7768, "Ġtwinkled": 7769, "abby": 7770, "Open": 7771, "Ġscraped": 7772, "Two": 7773, "Ġbenches": 7774, "Ġlanguages": 7775, "Ġmonths": 7776, "ĠJojo": 7777, "isions": 7778, "Spe": 7779, "Ġpermitted": 7780, "ĠJudy": 7781, "Ġwounds": 7782, "Ġrisks": 7783, "Ġbamboo": 7784, "Ġcreams": 7785, "rier": 7786, "Ġlipstick": 7787, "Ġannoyed": 7788, "Ġfreedom": 7789, "Ġfaded": 7790, "Ġorders": 7791, "Ġpoppies": 7792, "Tony": 7793, "Ġadults": 7794, "Ġcheers": 7795, "Ġunwra": 7796, "Buzzy": 7797, "shm": 7798, "Kids": 7799, "Ġsniffing": 7800, "opes": 7801, "Ġbirdhouse": 7802, "Ġnoodles": 7803, "shmallow": 7804, "Birdy": 7805, "Ġcells": 7806, "Ġnodding": 7807, "Ġflown": 7808, "ĠMarie": 7809, "Ġfloats": 7810, "ĠHerb": 7811, "Ġtearing": 7812, "Ġopinions": 7813, "ĠMint": 7814, "Instead": 7815, "Ġpuck": 7816, "Ġscen": 7817, "Ġhandsome": 7818, "ecca": 7819, "Ġsmelling": 7820, "Ġdrifted": 7821, "ider": 7822, "Ġpleaded": 7823, "andas": 7824, "Ġslither": 7825, "ĠSay": 7826, "Ġwithin": 7827, "Ġ5": 7828, "Ġheight": 7829, "Ġsneezes": 7830, "Ġbothering": 7831, "bage": 7832, "Ġinstruments": 7833, "Ġdamaged": 7834, "Ġease": 7835, "ĠSte": 7836, "Ġburnt": 7837, "Ġscient": 7838, "Ġwasting": 7839, "Goodnight": 7840, "Ġresults": 7841, "Back": 7842, "Ġpound": 7843, "Ġbrushing": 7844, "Ġscientist": 7845, "Ġgerm": 7846, "da": 7847, "Ġhanding": 7848, "Ġsweaty": 7849, "Ġdreamt": 7850, "Ġdestroying": 7851, "Pandy": 7852, "Ġtalents": 7853, "Ġcharacters": 7854, "Ġseller": 7855, "ĠJanie": 7856, "ĠAli": 7857, "bell": 7858, "Mira": 7859, "Ġexplains": 7860, "ĠRazor": 7861, "Ġcertain": 7862, "ĠMabel": 7863, "Ġhiss": 7864, "Behind": 7865, "Carl": 7866, "Ġonward": 7867, "ĠPen": 7868, "ousy": 7869, "ition": 7870, "Try": 7871, "ĠCr": 7872, "uel": 7873, "Ġfiles": 7874, "Ġbravest": 7875, "unched": 7876, "Ġdecisions": 7877, "Ġsnuck": 7878, "Ġsternly": 7879, "ĠHug": 7880, "Ġswitched": 7881, "urious": 7882, "Ġapologised": 7883, "Ġbusiness": 7884, "Ġstomp": 7885, "Ġengines": 7886, "Ġtuck": 7887, "Ġsqueaked": 7888, "Ġreminding": 7889, "inny": 7890, "prints": 7891, "Ġpostman": 7892, "Ġbitten": 7893, "ĠPoor": 7894, "Ġminds": 7895, "cake": 7896, "Ġbehavior": 7897, "ĠRobbie": 7898, "Ġscares": 7899, "Ġmosquitoes": 7900, "under": 7901, "ĠJudge": 7902, "Ġmanag": 7903, "Ġpeeled": 7904, "attered": 7905, "ashing": 7906, "Ġpurrs": 7907, "bbers": 7908, "Ġplanting": 7909, "Ġdesper": 7910, "ĠEverybody": 7911, "Ġneatly": 7912, "Ġtilted": 7913, "Ġsingers": 7914, "Ġsmashed": 7915, "Ġsy": 7916, "Ġdisplayed": 7917, "uffin": 7918, "Ġinsp": 7919, "ĠUntil": 7920, "ĠBra": 7921, "Ġrustling": 7922, "Ġyumm": 7923, "Ġtreated": 7924, "Ġbellies": 7925, "aver": 7926, "Ġmatey": 7927, "Ġhoo": 7928, "ĠBess": 7929, "Ġyelped": 7930, "ĠNavy": 7931, "Ġzooms": 7932, "Ġshines": 7933, "Ġcombed": 7934, "Ġscamp": 7935, "Ġmarshmallow": 7936, "Ġfailed": 7937, "Ġgrandparents": 7938, "Ġcoloring": 7939, "Ġcracks": 7940, "rup": 7941, "Ġbreathing": 7942, "ĠShadow": 7943, "ulp": 7944, "Ġnasty": 7945, "line": 7946, "ighing": 7947, "ĠMake": 7948, "cc": 7949, "Ġdespite": 7950, "Ġwaterfall": 7951, "ĠYoga": 7952, "omp": 7953, "ĠAngel": 7954, "Ġpandas": 7955, "Ġwider": 7956, "Ġaddress": 7957, "Tilly": 7958, "Ġantic": 7959, "ĠFishy": 7960, "father": 7961, "Ġdoorway": 7962, "Aunt": 7963, "Ġedges": 7964, "Play": 7965, "Ġsweaters": 7966, "Ġrobbers": 7967, "ĠMeg": 7968, "Ġinj": 7969, "wise": 7970, "Ġechoed": 7971, "Abigail": 7972, "Ġdisobey": 7973, "Liz": 7974, "ĠMichael": 7975, "ĠTodd": 7976, "Ġgobbled": 7977, "evin": 7978, "Ġtaped": 7979, "Ġgap": 7980, "Ġaction": 7981, "ĠLoop": 7982, "orking": 7983, "Ġbacks": 7984, "Ġswap": 7985, "ĠFlick": 7986, "Ġflaps": 7987, "Wake": 7988, "Ġscolds": 7989, "Ġocc": 7990, "Lena": 7991, "Ġtar": 7992, "Ġstudent": 7993, "Ġmagnif": 7994, "ĠEddie": 7995, "oscope": 7996, "Slow": 7997, "Ġplucked": 7998, "Ġprobably": 7999, "Ġsever": 8000, "ĠBlinky": 8001, "Ġouch": 8002, "Ġencount": 8003, "mies": 8004, "Ġnewspapers": 8005, "Ġconnected": 8006, "Ġwarri": 8007, "Ġgoo": 8008, "Ros": 8009, "Ġshinier": 8010, "Rock": 8011, "Ġcrawls": 8012, "Ġseveral": 8013, "ĠGary": 8014, "ĠSe": 8015, "tock": 8016, "Ġwhistles": 8017, "Ġsteth": 8018, "Ġrows": 8019, "iel": 8020, "Ġplot": 8021, "ĠMindy": 8022, "Ġsquaw": 8023, "Shrink": 8024, "Ġcares": 8025, "Adam": 8026, "Ġmood": 8027, "Ġquieter": 8028, "Steve": 8029, "Ġserving": 8030, "ĠShare": 8031, "igger": 8032, "Ġgesture": 8033, "ĠNut": 8034, "Ted": 8035, "Ġdoorbell": 8036, "Ġsimply": 8037, "vant": 8038, "fire": 8039, "Fl": 8040, "ĠTime": 8041, "Ġspy": 8042, "Ġrescuing": 8043, "Ġswo": 8044, "Ġshorter": 8045, "Too": 8046, "Ġswollen": 8047, "Ġcottage": 8048, "Ġastronauts": 8049, "Magic": 8050, "Zara": 8051, "Ġbothered": 8052, "Ġgrandson": 8053, "Ġsnaps": 8054, "Ġaccidents": 8055, "Ġtrusting": 8056, "Ġunpacking": 8057, "ĠPrince": 8058, "abelle": 8059, "Ġprayers": 8060, "ĠMousy": 8061, "found": 8062, "ĠDina": 8063, "anie": 8064, "Ġdresser": 8065, "ibi": 8066, "Mad": 8067, "Ġcausing": 8068, "Ġstethoscope": 8069, "Hannah": 8070, "retty": 8071, "ĠZippy": 8072, "Ġsou": 8073, "Ġthroughout": 8074, "Thomas": 8075, "Ġpills": 8076, "Ġjoyful": 8077, "Ġrunner": 8078, "Olive": 8079, "Ġproper": 8080, "mates": 8081, "aint": 8082, "what": 8083, "Ġleapt": 8084, "Mat": 8085, "ĠCro": 8086, "Jamie": 8087, "Ġmunch": 8088, "Ġlocks": 8089, "ĠToys": 8090, "ĠWait": 8091, "Ġlowered": 8092, "ĠJackie": 8093, "rest": 8094, "Ġcons": 8095, "Ġflips": 8096, "Ġtarget": 8097, "ĠBang": 8098, "ĠKaren": 8099, "artled": 8100, "Ġinches": 8101, "Ġgoats": 8102, "Ġwaddled": 8103, "Ġexplorer": 8104, "Ġstepping": 8105, "Ġteachers": 8106, "Ġdears": 8107, "Red": 8108, "ears": 8109, "ĠRuff": 8110, "Ġenvelopes": 8111, "Ġanticip": 8112, "Ġknocking": 8113, "ĠRalph": 8114, "ening": 8115, "ĠReady": 8116, "Ġcowboy": 8117, "Ġefforts": 8118, "Ġchar": 8119, "ĠTri": 8120, "Ġplayd": 8121, "ĠVroom": 8122, "ĠBad": 8123, "ivi": 8124, "ĠPl": 8125, "Ġuniforms": 8126, "Nice": 8127, "unity": 8128, "Finn": 8129, "Ġaware": 8130, "Ġsens": 8131, "oosh": 8132, "ĠRia": 8133, "Ġfloors": 8134, "ĠJacky": 8135, "Ġwhimp": 8136, "Ġfootprints": 8137, "Someone": 8138, "Ġglitt": 8139, "lied": 8140, "Ġlapt": 8141, "Ġappreciation": 8142, "Ġnearly": 8143, "Ġdisc": 8144, "llas": 8145, "ĠFiona": 8146, "Ġcollap": 8147, "Ġplug": 8148, "Ġexcept": 8149, "ĠDavey": 8150, "Ġprick": 8151, "Ġtrot": 8152, "Ġnecks": 8153, "Ġstamped": 8154, "Ġcharge": 8155, "Ġchecks": 8156, "Ġfluttering": 8157, "rily": 8158, "omb": 8159, "order": 8160, "Ġstatues": 8161, "Ġumbrellas": 8162, "acy": 8163, "Ġshrank": 8164, "Ġsandcastles": 8165, ".'\"": 8166, "Hoppy": 8167, "Ġfinishing": 8168, "ails": 8169, "ĠHoney": 8170, "Ġhunters": 8171, "rons": 8172, "Ġstroll": 8173, "Ġdodged": 8174, "Ġbounces": 8175, "Ġadds": 8176, "Ġweeds": 8177, "Ġsets": 8178, "Ġgerms": 8179, "Ġchocolates": 8180, "ĠAmelia": 8181, "Ġaisle": 8182, "issa": 8183, "Ġwrigg": 8184, "Ġaprons": 8185, "Ġscratching": 8186, "Ġpassengers": 8187, "Ġdemanding": 8188, "iscuit": 8189, "ĠSadie": 8190, "Ġbecomes": 8191}